/**
  ******************************************************************************
  * @file    audio_model_data_params.c
  * @author  AST Embedded Analytics Research Platform
  * @date    Sun Oct 15 22:56:43 2023
  * @brief   AI Tool Automatic Code Generator for Embedded NN computing
  ******************************************************************************
  * Copyright (c) 2023 STMicroelectronics.
  * All rights reserved.
  *
  * This software is licensed under terms that can be found in the LICENSE file
  * in the root directory of this software component.
  * If no LICENSE file comes with this software, it is provided AS-IS.
  ******************************************************************************
  */

#include "audio_model_data_params.h"


/**  Activations Section  ****************************************************/
ai_handle g_audio_model_activations_table[1 + 2] = {
  AI_HANDLE_PTR(AI_MAGIC_MARKER),
  AI_HANDLE_PTR(NULL),
  AI_HANDLE_PTR(AI_MAGIC_MARKER),
};




/**  Weights Section  ********************************************************/
AI_ALIGNED(32)
const ai_u64 s_audio_model_weights_array_u64[3039] = {
  0xff31c08b81cc96d8U, 0x4a7f0503e1a5da23U, 0xac8198e19a97cb68U, 0xf63682975f72390dU,
  0xb1279bc08199f5ebU, 0x915c332c5f7fc22aU, 0x6c70feaa6c8151c1U, 0xc19e81c140fafe61U,
  0x91ac92707d7f07d0U, 0x14a70c64eaa57f00U, 0xfa1ae709f598e6dfU, 0x390cbc1a0cd0fa81U,
  0x81d6d2d4107fbcc3U, 0xe075b539f369142cU, 0xeadde3be7f18f05eU, 0xa9f49c9881113513U,
  0x7f273fb47f02e919U, 0x18bb17d4d643d466U, 0x343ffffde0dU, 0xffffe6baffffdc29U,
  0x1e6ffffff73U, 0xfffffc9100000258U, 0xffffe90effffff28U, 0xfffff9dafffffd6eU,
  0xffffdef700000863U, 0x54b000001c1U, 0xe5c189b113040231U, 0xb920fb0bec37161eU,
  0x8fb8edcef2340c7U, 0xed03f203cff92ed5U, 0xc3f9a4f6c6ed5de2U, 0xf7f7e27f0c32d9b7U,
  0xe0d1e6fc150af3e6U, 0x8a34042df12c24dbU, 0xab38822911f32447U, 0xce29073e0e51e6dfU,
  0xc410ed2dceff46eeU, 0x2729410de74109e6U, 0xd58fbf2005f4d50dU, 0xbe04141e0a2d43faU,
  0xb0fdb3e210f6f6d2U, 0x945d2b3c142bf5dfU, 0xb650ddcf00ebfbd3U, 0x401df18e1fbf6c0U,
  0xcd0dcbcdb9fb22deU, 0xc4e59cfae1c0aeb2U, 0xe8d597dcc819e3ceU, 0xb8d6d5beb3bbb1e6U,
  0xc0c1aa04d4d303dbU, 0xccfbc2de9fb9f7b4U, 0x55ffc427b2c338b7U, 0xe33e07ee0adcb5eaU,
  0x293be57f00ba61f0U, 0xbf44d22219ce0755U, 0xe1fcc565d0ef5a9dU, 0xda49d80509e2da18U,
  0xaf228f02ccf4906U, 0x14b8f4e9f8d8e9f6U, 0x343dffed02c23d1dU, 0xf4dcdfef34adf228U,
  0xaa2fc00cc9d6f20bU, 0xddfaeeceeafce834U, 0xccf6bfe7f5d6daf6U, 0xc8dcc0e6b3d5bbecU,
  0xe04b6bdcbd6e1a8U, 0xc82713faa8b3c1f1U, 0xa41fb310abc8e9a7U, 0xffdcc439cdd3b1d0U,
  0xd1e530f01e401c0aU, 0x42d107e90e4b2400U, 0x17f2320518f9e9ffU, 0xecf6f3e91b000b04U,
  0xedeb08d3f60ce2f5U, 0xe4ce18e4be2c3c29U, 0x9e1934c41b2fa9f0U, 0x1ef50913013a46f9U,
  0xc8cae6e5e7f0e6e3U, 0xd1d8eadf23eaf0e2U, 0x8222d881da3effe7U, 0xe0dbdfea2c39090cU,
  0xaf904ed2cf9b435U, 0xf1182df9f3f14822U, 0xf3142a8238e8ad1cU, 0xf1bc40a8c9fe20bcU,
  0xcc9cd812934e232U, 0xc4df1ab3e4d531e8U, 0xfe12e313cf4247f4U, 0x3a49bc2820231e53U,
  0x310a1bfa291aeff1U, 0x272d051114d92331U, 0xea2d06d432042eedU, 0xfc53dcd4f7e31109U,
  0xb444ea3faf102d01U, 0x5342ab21ec361776U, 0x435210bd9ba09bbU, 0x3129d12cbfbbead6U,
  0xe6fefa1534d909e6U, 0x3b1af827d72d0e0eU, 0xff5af4c3201fc524U, 0x4dad384220f721d6U,
  0xe1138ff04d3fd36U, 0x2b1106021f33341eU, 0xfd00fbe60b3cb429U, 0x6b9df4cb0efcd81cU,
  0x71fcd10f70ae938U, 0xdae2d22c20fcebb0U, 0xcac308e0c430e8f4U, 0xdc1ff2fe2c03e412U,
  0x1ebf22ab101bb8dfU, 0x1ebe0302fef2d7d4U, 0xdf88eec5cb2e5a2eU, 0xc340e36cdbf08d5U,
  0xd2c6f8ee0af507ffU, 0xe461e350fc27deeeU, 0xd081f6f7d7c825dcU, 0x29bb0b54e7e0e401U,
  0xcbafb1002fddef3U, 0xce0a1afa2b13f9e9U, 0xefaddfe72af20131U, 0xcaf821f2f8bd4081U,
  0xaa4d61e00ef0b19U, 0xb9e119f0f823ebc0U, 0xefd2263a2ff90bf3U, 0xe4e8e11efa0a1033U,
  0xeb092924f60bf207U, 0xea0907f3e5c8ebd5U, 0xccf707091ffc181cU, 0xe70e0205f20eef0eU,
  0xbb3af91adbeb2fd4U, 0x21be81f0a31ff61U, 0xf900e8d5f8d7e4d8U, 0x110ed3eaece4ee01U,
  0xe6ffc6c6e6db16e1U, 0x216e4d60e33fb2cU, 0x2adbd50a0642d221U, 0xec93cd6f7cbfcb5U,
  0x1eeadbf6fd3d0effU, 0x6e618defabdeecaU, 0xfef3f710fd30c31fU, 0x15010fd8facc10cbU,
  0x7f11c9251929052eU, 0x509351be2da1c0dU, 0x2a2fcc160ce52cceU, 0xfbe50afb0adbf1d7U,
  0x4f27ff00dbf31ff3U, 0xee1a24c9ffc1ede2U, 0x40ede5e0eb063df1U, 0xefde4603f6f020e0U,
  0x32d8b207201b0fe5U, 0x1d2e81b01d20cbaU, 0x3c25d8f1f0d722f0U, 0xe8d8e2f01be30fc5U,
  0x850051cfa1b050fU, 0x2e0be42726eec713U, 0xcd26eecb3cd712d7U, 0x2dbbc4d4f0fedf12U,
  0x30f126c4f63809e3U, 0x17d303c6f3ddca1dU, 0xdb0d2b56ba1dbb1bU, 0x881f41e382113bfU,
  0x122242ff05289b02U, 0xdeae0cc32efaefbbU, 0xe70e133fe423c13cU, 0x1bb0ec644f8f3e9U,
  0x67eded42bce92a17U, 0xadfdc4c4f1f6ccd3U, 0x31f95cdc12000bU, 0xdaedf2a7263522e2U,
  0x1f1e21fda2eec0aU, 0xfe16fecf3d0bc5d7U, 0xe46b62c359e2a1daU, 0x71a65c4efb06eff6U,
  0xb03901c0dfecfa57U, 0x7fc0d4351ae5fb16U, 0x88770c8339cca549U, 0x5033ed47f8f012abU,
  0xf75100aedb01cf37U, 0x3c12cb07d639fa5dU, 0xe670197ff24d03aU, 0xd018dde12cc8f51aU,
  0x1754fd842eed9912U, 0x5e2cd543bc57a916U, 0x329e6b829c5d720U, 0x152dd413c1190b32U,
  0x41ac1c4c7c2faedU, 0xe325ed2ae824b858U, 0xff172daa3bbaf805U, 0x2e0bc9fbb01dfc24U,
  0x1b04fdd3def94ce8U, 0xf9e9244b15eacbe0U, 0x17f2dd0aea11ebebU, 0x2eec240118d8d0e6U,
  0x1c6fceff0242eefU, 0x2fbe842d6f107d0U, 0x1436edb1cff5b116U, 0xd9eef5ec1ec3d4b9U,
  0xfff9f7b416e1c917U, 0xfbbb2308edca20d0U, 0xb8eae6811015ca16U, 0xe3be1001debaf9e0U,
  0x809c41bddf50d24U, 0xccb918cdffce0fadU, 0xeeee0a40e1dbd704U, 0xf9c50cbaddda18b0U,
  0xfffb0423d415e6e2U, 0x2981dd4dcb704d3U, 0xc0dc2491cbf4e9c0U, 0xb602df0cf815f1edU,
  0xbdf7a2a208e2e2bfU, 0xdbdf0102f5b12b26U, 0xbde391b0ecbfebdeU, 0xd227fa1181e6f8U,
  0x39e3350115e6200bU, 0x203dfde074a0e45U, 0xf6eee11d15da1003U, 0x29fe0f3eedf7404bU,
  0x2e1ac5ffedfdef14U, 0xe31ff3441000251bU, 0x211f3bc83220d1c5U, 0xe450df1b1332eb37U,
  0x39efe40b2de4032cU, 0x102de0f3b200a1dU, 0xc37edf90728150dU, 0x13103045e1c23251U,
  0xe62702e9d36b2224U, 0xd1944bfb08e6d4a9U, 0x933bec3c0f60c4ffU, 0xeed30d3c14c8bca0U,
  0x854142112bf8cc56U, 0x262e14071b01e1bdU, 0x1edfb1f600fbf03cU, 0xcfbb56e5150601d6U,
  0xf2ca4ce0840e5eaU, 0x4e23fefd00e11db9U, 0xba2102f349f8f930U, 0xebfa0112f149c3dcU,
  0x3137c7bd2c7bc46bU, 0xc8d652a61feedb05U, 0xcf2eadfe13398143U, 0x178d62f6bddae7d7U,
  0xb93317d762038819U, 0xd6e72a012af029a3U, 0xe6001f27ff21ff06U, 0xddf5f9a1222d26deU,
  0x16ddc9111f0cc8f3U, 0xff4b0bb0fb3025d4U, 0x30ef4f4e0d404fcU, 0xc42cf8ef0a2ff4d8U,
  0x1308f423eb012ad0U, 0xe8dcf0aeed2a22e2U, 0xd1d9ee0c22e3f112U, 0xb0450bb8fb4ae7c5U,
  0xe6def7e714160f19U, 0x970811dff335e5c3U, 0x13f90310dbeec8d4U, 0xe5e9dbca1f00ddd3U,
  0xeba3eae810e89ee7U, 0xb005f5c21809e9a9U, 0xd3facfe40deaabd3U, 0x811ffcb6eb2409c8U,
  0xca01fc4ba0b342e9U, 0x1d09db1bd5e6c836U, 0xcac95408aaefe39bU, 0x1526dfd4f520cd00U,
  0xb5be18dfee97cbf2U, 0x3218a000b6280bedU, 0xd9151b5bc9ef6e1aU, 0xf8daec412d06eb14U,
  0xb6150d7fcfce31f6U, 0x44c5a91205e3e11bU, 0xdcda1c7516ef41eaU, 0x8bec1040e1bf302U,
  0xcb271eea44210cecU, 0xdb8ec3d752f005a3U, 0xe0f00c0702d8e011U, 0xe1acdcf7421cf9f6U,
  0xb44c07fa2eb439U, 0xac9cd0b6b3505fbU, 0x1e183b3cd721ed18U, 0x57c9441e08173714U,
  0x195c3f2cec35e51cU, 0xfd191e1614273414U, 0xa5a277fecf71ffcU, 0x38c028f1ff0a1d4cU,
  0xf9c0021eeb2519f4U, 0x19fe17fee012042eU, 0xa1523ed00302d41U, 0xd10f0ee001fe10U,
  0xede913dc2adbbad5U, 0xd40a36f21acd26eaU, 0xe7e5f53b3f3b30f7U, 0xd5e6462c370e2aeaU,
  0x25f15000f042012bU, 0x1ba101da281affe5U, 0xedd8fe13ef460808U, 0x6d11519ddf11001U,
  0xe99302c8efccbaceU, 0xcfdaf7e6060819f0U, 0xf881fbeb2ff3ecc9U, 0xedf52e1d0bf92be4U,
  0xd4ece6fd24ecd0e2U, 0xe02ed00ec41fef3U, 0xf49c1322d9f71826U, 0xbfdfe423391cdf97U,
  0x19961637e1d511f1U, 0x9dfde305d91cedaaU, 0xeed13440db11270eU, 0xdde3f1e602ecf9a9U,
  0x1adbed4f07c41aeaU, 0xe34c0048e5f7c7e8U, 0x41f395115c1f5c3U, 0xdf1d233c0e29190dU,
  0x88ba226601203cebU, 0xd041c6092d0e0916U, 0x10f2e113123de741U, 0x15e811d947d40fa3U,
  0x13f2b822ab372a06U, 0xc13c6000629cfb6U, 0xba21d80ddac422cfU, 0x160927c0ccc9c2f5U,
  0x4c48c2d64ff1662cU, 0x24f11ebfe1cc0b4cU, 0xe3f81d9c0de2c2fU, 0xa5e1bf1fef4361fU,
  0x135d9a0511006cfdU, 0x282b0bbac8ba1327U, 0xfa11d6070c0e221fU, 0xd6e93df3e3d3f5f0U,
  0xf9d2a3ecd3280ce4U, 0x1cf2d8adafdc08ecU, 0xba9eef34a7fec5dbU, 0xdbc722a6029c1ee3U,
  0xdbe145f83304cc2dU, 0xe22fd9bc35560828U, 0x630f421ebff1816U, 0x101adbd2e4361df6U,
  0xa25073ae5200c01U, 0x5655111f39f9d225U, 0xdce317e0150c09fcU, 0xd041ea08e352fe6dU,
  0xfbcdd422dec700c1U, 0xc72cf1032cdc323aU, 0xfc66f80026285025U, 0x4552f208141d1611U,
  0xdc19ecabfeec0bffU, 0xc21df2b203113614U, 0x8f8bae0f4c12d26U, 0x92ae42ad536f74bU,
  0x12df004524db5ec1U, 0x27f3956c220c3f0U, 0x41d13ef99e0a17b1U, 0x13decb0be6d1bd67U,
  0x1316182aebca2f93U, 0x124ca8f0c2e8b76cU, 0x4dc23bfe92abe2daU, 0xe308d707eb089112U,
  0xf5ddefd1dcd0d8d1U, 0xfb32add5fa04f0e5U, 0xfce20f38d2844081U, 0xdb1095c9c7e7caccU,
  0xf7a612c1c692f092U, 0x2753bdd6d0d0ae27U, 0x10f30a31ecf0ba24U, 0xfbf2f19524feaae7U,
  0xf200222bc62ae522U, 0x28e9f5cd17a5b622U, 0xe0024ae71402b9d0U, 0x13e9df9a2117e117U,
  0x1fd303a53333db0bU, 0xd5fc04a6361e0742U, 0xe1d901b732f69cf4U, 0xd0d211c40e1402deU,
  0xbb0bf2c1d829caefU, 0xdde9420f16020efeU, 0x3d4f4bcd834a033U, 0xa4e300ffe029e628U,
  0x6c101d2d5fab82cU, 0xc8aedefd152bf6dbU, 0xbda3179d09f5e729U, 0xafc01edbd52ae9deU,
  0xf0bde5192be5a10fU, 0xd0d656f819113427U, 0x1dd2f5e8461f8108U, 0xe1b534c8050f39a2U,
  0xe188ddec4819d70dU, 0x95da31a7db0a130bU, 0x8cd60a46c5075f04U, 0xe2e0e64ccbf2f2deU,
  0xf39ded7ff503280cU, 0xb107143dd91faeb8U, 0xa9ea2126e50369e8U, 0xc312ee04c5d5fef2U,
  0xb62544ff110e0b3cU, 0xdb2533d7f928eeedU, 0xc5fb4158350af1d9U, 0x130636f1fcfa511cU,
  0xad285aba300a263aU, 0xa0f0a3b25ef5817U, 0x33820b318eab937U, 0xdfbf073d32253e18U,
  0x384f2707e9370cfeU, 0x37af2e3c3cc0f65dU, 0x310f2f09024546f2U, 0x46084457060df355U,
  0xf033d3e318f53538U, 0xaed371ffa89faf2U, 0x13c31ac3ffd637e6U, 0x3dbfef4510a5fcacU,
  0x7efebcb1ef3d6e4U, 0xda98d1e814d115b4U, 0xf5e41bd70d14493dU, 0x5ff8f925f5f3ea12U,
  0x1fe65cf2eee41fe6U, 0x51e7362b2337d2deU, 0xfdac0cd8dff8d9beU, 0x2c9b1534090be6d6U,
  0xdc184d150d074109U, 0xaea373dceb51dacU, 0xc0d342be81f01f8U, 0x5b81d505e7eacd24U,
  0x18c3542efd1be513U, 0xaef190e0c10c802U, 0x1425faf00def1f08U, 0x161a0b3c08e0e628U,
  0xeb4af3e3ee04f907U, 0x2a0b104729f8ef4aU, 0xde3bedde110d1b09U, 0x4e19f13a1bfae57fU,
  0xe014e8e6fadcd1fdU, 0x11ea1d1b01e6e615U, 0xeb2df3d3fbf6c011U, 0x1cdddc0c00f322f9U,
  0xf325efbae8f7e607U, 0x16ffdbf015f31a39U, 0x9f616d0f70bece5U, 0xbe9ddd00c270907U,
  0x1af2fdd01c01e320U, 0x40903eaf6080311U, 0xd06be0cf9d1e3U, 0x1924efd722f6ec35U,
  0xe1c6e1ceda08572bU, 0x230e16fba163a0fU, 0x25ffb3011d0e3a10U, 0xa0e4356044229f6U,
  0xe5beaaf3c3e733ceU, 0x46f21835ca1327e5U, 0x21f6d31c19d74ceeU, 0x230b0d5f212329f2U,
  0x2827d8162eda7348U, 0xf8efec17ee263ce3U, 0x3d7edf9071d6ee6U, 0xddf0217f231ae1d6U,
  0xd4210442571f074cU, 0x11d50c5b390634eeU, 0x2c0c0d01f31bf158U, 0x4dcb3e4c2040edc5U,
  0xb18cf301052e744U, 0xf0cd0741f0cddae5U, 0xd6cb26f82710f921U, 0x32471811dc5a192dU,
  0xbbf08bb2716bee3U, 0x4d97fae9e0de16faU, 0xdaf100cdd42fa624U, 0xe6cbeffc373f32d9U,
  0xeb0e1512fa1510U, 0xeb1b0d24305ff024U, 0xb6d53af605de2e42U, 0x13b9f82c35c422e9U,
  0xbdc540c210f6d3ffU, 0xd5e5d4f439fc11dcU, 0x323b200ee1360fe4U, 0xfa7fc6143818325dU,
  0x1a090ddfd72950f9U, 0x46f1cf082da81b1bU, 0xfe4af8c7ce170e37U, 0xef39dbd0d957e4edU,
  0xee00156ce3f97048U, 0xd15d8fc3a4817e2U, 0x3901416a46625ffbU, 0x1a1349270141f517U,
  0x1321165dbd573b18U, 0x32d1383855f414c7U, 0x1e26391f0ef70e22U, 0x41e9fb3355242042U,
  0x4e215f2a385f4a5bU, 0x13464fe30315077fU, 0x276529e1fd4af724U, 0x10a535312465c35U,
  0xfb57e418f9523532U, 0xf40053e0ef4455c1U, 0x392d06375468ef3aU, 0x54be47f14f101dfcU,
  0x820e8fa5446073bU, 0x5bcf034755fb3bf6U, 0xb8e102da22fd0d1cU, 0xfbc9efdf390417d7U,
  0xc6dfccc0ea110722U, 0x6f810e14514fecdU, 0xb0ca08813b2cdd0fU, 0xd2b9f9f7030d1710U,
  0x85fcfab91bd91a20U, 0x2a2fc70b0f0ede02U, 0xc7eee40330ecfc0fU, 0xf2f8e22b2cf425d5U,
  0xa53cfcc6d0d2de06U, 0x3207d9dae70201feU, 0xe6d300c429f306ceU, 0x3d04de45e2e7d7d6U,
  0xae19dde435f918f8U, 0x41e40d251ff0ee2dU, 0xb104f7da0fdf2a2aU, 0x42eb1241ef2727d6U,
  0x7902e81ee29f4e6U, 0x14a1f7fc02cf3cdbU, 0xd984d7bde4caf6ceU, 0xe8460750d03c11cfU,
  0xd7c94183373bd322U, 0x38ef452eefed2510U, 0x140425ea1729e4feU, 0x25bfe9150f17e503U,
  0xf4e0c3012122ef28U, 0x2c61da44ff362309U, 0xebcc35f620f7da14U, 0x30ccf924182ddc4aU,
  0xb1de1a3ff8f63b23U, 0x57b1f021d9ccba0cU, 0xeec2dc2eecdcd5e0U, 0xd5ea929ef69d4e4U,
  0xbdbd282cc932360fU, 0x11f2194107fdf95aU, 0x28eee61938e80417U, 0xe50ff2c303ecfef6U,
  0xeacff9270018060dU, 0xe5142ae9e233ee03U, 0x2509e43603dc18d9U, 0xfbfd1dd000e0e1edU,
  0xecdefd37fb1d0339U, 0xbe40e052a0f01e4U, 0x14c7ce6ae81e0be0U, 0xf51e19fc06f52bfbU,
  0xc1cbf7fe4fa3e07U, 0xb40ffecd8fafaebU, 0x1723d9973436defdU, 0x308fffe23e63b16U,
  0xe306deb7200ae423U, 0xf72120df03042621U, 0x725d0c00420fbf9U, 0x162ad1f6e3e81affU,
  0xd71abe08b11a0ff1U, 0x18d914ec13d4de11U, 0x1fdb516fc16d3d5U, 0xd9ddfbeaedfdd0fbU,
  0xda8f2816d717ccU, 0xafe205bfebe0b5eaU, 0xd22c1c3a04365efdU, 0x42d322fa063cfe07U,
  0xd2423e341de504efU, 0x58c725d21b13f9f3U, 0xd3e70a1fe8eac223U, 0xf7014381d5011010U,
  0xf72e2809f91e252cU, 0x41dc23e9ee15f323U, 0xe3eb5738defeec1eU, 0x3fef8950e4d0137U,
  0xc8ca45130c1ed604U, 0xcdead6d8323b120eU, 0x41e4f92107f2bedeU, 0xa8d835b010051ec1U,
  0x1cf60e09d627c2e5U, 0xa7f839d303e223c6U, 0x47c7f408fadae30eU, 0xa2e717a3c9efd006U,
  0x4736efddf82cf12dU, 0x2f09e22f01cc2ef1U, 0xed1ae4d2edf4e5f7U, 0x2c49144bfffcdbd2U,
  0x4f1befb61e2b041fU, 0xf817f22cc6bcfd0fU, 0x43f281e4c0c12c20U, 0xd603214904cbf5eeU,
  0x4ebcaa09d0f91bddU, 0x31d0a12b6d12eddU, 0x40e58c40d9de380aU, 0x242f04f7c4bfc0fcU,
  0xcd35635b2cc81518U, 0xeed1bd3d20f5f0eaU, 0xb1254e334541e0f5U, 0x2c53c6d33efcff1fU,
  0xc3af1067de1f2c2bU, 0x12461bf746565bfeU, 0xac427f3845193cebU, 0xcec7f554da02e9b2U,
  0xb0c41147c9c45fceU, 0xdf691b0bee1adee7U, 0xdd375948d7cd2833U, 0xfc1bd4ee36ffefcdU,
  0xd0cff556cc066aa1U, 0x2b52cc37df26c968U, 0xb0ea1545c33379ddU, 0xe21f404fcbcb410U,
  0x96da16ae27fed2f3U, 0x11dd1fe62d521d31U, 0x359000003097U, 0xffffe60d00005862U,
  0x1ba700001b28U, 0xd1800001c5cU, 0x5544ffffea72U, 0xc2d00000a34U,
  0xfffffd5c000031adU, 0x1367ffffb875U, 0xffffb30e00002ba0U, 0x47d100002509U,
  0x537ffffb391U, 0xffffc3efffffec4aU, 0xffff3508ffffe0a1U, 0xfffffcc700002cbcU,
  0xfffffbe7fffffacdU, 0xffffa72a00002d71U, 0x3212d8f3bcb987d8U, 0x2eabe01d2be7ccf2U,
  0xebe4e2fc0221a5c4U, 0xcdbde71cf3afc025U, 0x234003f6c5f2ebb4U, 0x8cfd9091ce3c436U,
  0xfd6f6f6df18c3d3U, 0xcb0df020ebdacd2fU, 0x2af6bff3b4ef94a7U, 0x11b0e81e1be6030eU,
  0x21b0f9f83c2181c3U, 0xbdf8c210d2a8d74dU, 0x10b5ec34ec210afeU, 0x13d0f5fff128e0f6U,
  0x3ae2c247d1f5ca61U, 0xa12de34f00bf33aU, 0xf109fa022a3a5ff5U, 0x1c8e6f9e10abcd2U,
  0x372ed922f81dfe27U, 0x1a1723d8f3f816U, 0xe9fedd3a1c482ac8U, 0x170f27fffe428e00U,
  0x1de4cb322a4bdc33U, 0xe542fe650a02e146U, 0x221c060617d916f3U, 0x5c96ed1f0e0cb9c5U,
  0xf8f2f70fb52ed124U, 0xe11af14a39ddbb14U, 0x3816ddf3f1dc2cefU, 0x4be5ffcae92cd812U,
  0x3ef4c62e10100b58U, 0xf1de9111528fa2eU, 0x282be4f31fbf1c22U, 0x4df745d20f41b4d6U,
  0x6f2f50930fb0546U, 0x134ac25236cfdd42U, 0xf42c0ae9c0e011e0U, 0x4228c631e71607ddU,
  0x17fdfc07203dcdf9U, 0xc2c22fac11d4212U, 0x12021500e10b37ebU, 0xf51dfef92deb2bd8U,
  0xfbe5ec14ed0d0f27U, 0x100defe6e034fcf0U, 0xd32729e5e9fc22cdU, 0x442503f40ded17eaU,
  0xfb0554f114fdde1fU, 0x9e0eeec01fdfd13U, 0xcfedf3f8550ed819U, 0x6e2812b0b0301e8U,
  0xee20f07fe15f814U, 0x2ed0e7cfe3f0dee8U, 0xdbd113e05014e5ddU, 0xae0a9e272f36d5abU,
  0x471dd016372bdb0cU, 0x12ebdecfccf90910U, 0xd3c109e51bfec9edU, 0x8af796002b13e8eaU,
  0xf6f4994004130304U, 0xf7f4f202a6d5f7dbU, 0xcde3552cf85470faU, 0xba1e02f802e0ead9U,
  0xde22eb17ed5fc637U, 0x710f10efe1adbcbU, 0x1af245d52c0e4f18U, 0x2da1b2e1419071bU,
  0xdd05c5f714121a42U, 0x94104ff0913022bU, 0xdbff05122d472714U, 0xd1f817f615290ff5U,
  0xf724b7232c2f071fU, 0xf0f05fc3a3303fcU, 0xbd170e0e1d11d7f2U, 0xe6ffdcc531fef8faU,
  0xae4dddce6e3bec3U, 0xbf0901fafb153106U, 0xb11b21fa39ec09f2U, 0x2c2de5c61a39ea04U,
  0xd4b81803ffe219e4U, 0xe5d4da0220e7ed04U, 0xb502650c4436fe0eU, 0xe1dccf0eff26eed9U,
  0xf3ff280ce0eef2ccU, 0xd1e910b731273806U, 0x9e06d71ddbfad1fdU, 0xec06cac406ea2207U,
  0xffcbec0adbbb1f01U, 0x61516e300fb29f5U, 0xb5281de20bfd81cdU, 0x27250de4ded2262dU,
  0xe2f7da0103b621e6U, 0xf010e6141ce61d07U, 0xf20bf1fd2d41d1f1U, 0xe50cd3f7fc144211U,
  0xdf3eadde8c4ea13U, 0xe83b18b048d7e919U, 0xf008cbede8e8ba4cU, 0xef0d30d4f01bd3f2U,
  0xfe06ba0cf6f1f3d9U, 0x15160c01e9130607U, 0xbefb0e0712ffbd17U, 0xdbe0f7bae512bf06U,
  0xf1f40e18091215c1U, 0x71cde023ce4f222U, 0xf14c2d45812a81bU, 0xa5001008dfccd24aU,
  0x35e722e4c5d417c1U, 0x16e90cce4215e416U, 0xda0b00edf120e8f8U, 0xead6151dcbe90e40U,
  0x3942cefff3c11e09U, 0x7ff1e0cbc0fbf0f5U, 0xebf0172ada2cd9c2U, 0xffe3190407d3ed1fU,
  0x2926fffef8fe170cU, 0x5818c0ffdb00f9d7U, 0x2f60b15def3e7eaU, 0xedd942f102edfa1eU,
  0x27f106eee5f316f0U, 0x66f6e4e1e80f09fcU, 0xe5f8f2f4e52305f2U, 0xd30240f807fa2307U,
  0x1e441b36f8ec07faU, 0x32ccf617daf80edcU, 0xf070802dd1113f5U, 0xe90f39ed0acafefcU,
  0x815161b0ef208ecU, 0x2afdd6dafc05f904U, 0xdcedeede08fedd04U, 0xfd273c23d9c52d0fU,
  0x15f6360711e927d9U, 0x28f31be300dc18fbU, 0x22f8161f1c14e5caU, 0xe6d51347d0122c45U,
  0x2834ec0c23e412feU, 0x3618c407eacaf5e5U, 0xec181217e444f6d2U, 0xf302f91dde033c27U,
  0xfe09fafd2438270dU, 0x5a00c0e7e7e62fe3U, 0xf3ccfafdf22bade8U, 0xd8eb1e2dded50121U,
  0x142227e127f42103U, 0x3ce9f1fdf7ea01fcU, 0xcf0702eaef24e3b7U, 0xd3beb53ee8be2ad5U,
  0xd0f0de418f03effU, 0x3dfcd0e0e5e6c6fbU, 0x9c39d9e0242ec5d3U, 0xd1bfcafbeae932e6U,
  0x50e3a1e000b3702U, 0x39140d03c9ece4fcU, 0x9df6ebc1005aade4U, 0xacd7a711a2e92dbcU,
  0x161218e31ffd501bU, 0x54360350032cf7c3U, 0xf0fa2cbe23619cd9U, 0x8b25d5473bbc6acdU,
  0x3523c41158f75cb4U, 0x450106032101fcbeU, 0xb0deefd62841ada9U, 0xc0fb1547fee333deU,
  0xfa42ebf651dd25e8U, 0x3628e6fede291adbU, 0xdcdffae00279c7e8U, 0x81cd0f05c0ee4ac1U,
  0x3530ccd718412601U, 0xfb253316444604d3U, 0xc4f9e4eb0854f0d3U, 0xc0d3ccf305b351ffU,
  0x25f00b1905fe60f0U, 0x5c2c0027f4ed1fbcU, 0xb14cb808d13ef2a1U, 0xd310e7fbdfd70af6U,
  0x441dee37021e40edU, 0x441dff2faeb71d05U, 0x921e0efce04ccef7U, 0xad0c1d0fd5cb31f9U,
  0x3728cbdcf93c092bU, 0x474b055f1af0f604U, 0xedd72ff20042e434U, 0x3a440dfe0e11f5d3U,
  0xa6012519e2cc09ceU, 0xf5c92d1006fd1b0bU, 0x21042af60643d0f5U, 0x54c1ffaf908e404U,
  0xf9d22f081eda14f9U, 0x43e01ee4e3ef20faU, 0xa051d00285dfe00U, 0x3631fbdce311f1e3U,
  0xc9ea31e0f0e62007U, 0x31d94ecd1cfc0dcdU, 0xe314b7f2ece8d22aU, 0x1f31d1e6201612e5U,
  0xdee91de6f81300e2U, 0x2bf504faeae70bf3U, 0xf802f213291bf42cU, 0xee27e820f9df2af8U,
  0x1adf3efe102edf4U, 0x32ff25cced14ea2bU, 0xf60b00f52921f724U, 0xf2fb14130ed608dcU,
  0xf581fdece118f1e5U, 0x53043db90c08cfeeU, 0xc0d608ed1aefc83fU, 0xf3edf6cecadbd8ddU,
  0xe5e63f0b00191c09U, 0x4fc9fb09f10950f4U, 0x241a022339e8cb1eU, 0x5fd0610e4b5f000U,
  0x22f5fae5e30c18e1U, 0xfa19d9d6d3ed2f05U, 0x625001a5ff5de1cU, 0xf7000b01c7cbedc4U,
  0xdfe20bede71731d4U, 0x440322b8040325d7U, 0xfd5bab5eee5071bU, 0x23d31e5429420afbU,
  0xed32beaf2dd34c4U, 0xf70be4c611ebed0cU, 0x60afbced1e70915U, 0x23e1ec18ee02e542U,
  0x24dd17e30af00cd6U, 0xd0de6b32416eaedU, 0xe407c6a7dce6ff0fU, 0x49dd33282122d707U,
  0x22ff37e713e5f0bfU, 0xf21be6c022d921edU, 0x8deeadbfd05f128U, 0x9d7420ed71e3ce0U,
  0x3704f74517fe3008U, 0x19d40725b5f4c2edU, 0xecc2eb01071e290cU, 0xae20c13f9382c0eU,
  0x331feb6713150e11U, 0x1edbe537d5ebeadeU, 0x1bbd02cc18042b1cU, 0xf016fe09032216e8U,
  0x360cf67f0e0b1411U, 0x15f6e93fcde5e10aU, 0x27f0f1e10f1b2535U, 0x36025c26075a1816U,
  0x3014e2362e0a1eefU, 0x21f0d212d1eeb2d1U, 0xfc082007fa1e5c15U, 0x20d7442e1616eb45U,
  0x2225c3220afdd800U, 0x3e23a60ce3e9ffb1U, 0x270c06ecedd41b0dU, 0x51f2574ffe32fe0aU,
  0x3b2d06421f14fc22U, 0x454bc83adae60fd5U, 0x17ff32df0b031403U, 0x38ebfc03e609082bU,
  0x2430c9fbfee5d8d3U, 0x30e3cde8fb1adc05U, 0x3a16361d02be07f3U, 0x23e10ce615f9f013U,
  0x1412c5df18e7aef5U, 0x5fb03c91e0d11ebU, 0x27102c21e1fe2bceU, 0x60df0218d009de2eU,
  0xdc14c3c1ef00d9ecU, 0x4bbc6c845fd0f10U, 0xe413150c1a0a2620U, 0xd7e018ece03206ffU,
  0x382e0b3f10dcec3eU, 0xf7e80710e4fd0c33U, 0xce0ff11e2cf0ec16U, 0x12f10a10081edb1eU,
  0x1227fc35fb06ce28U, 0x1efdb2016df3f41U, 0xe4c4130c5500fcf9U, 0x2218262b063d0221U,
  0x3fd092f1fe4fc45U, 0xaef111414f00328U, 0xff071fe6c90f2215U, 0xea190a0f102c2de3U,
  0x6180cdc0dc90ba1U, 0xfa0df297f232bd05U, 0xf3034519e2c70f10U, 0xf9ed05f3db4df1deU,
  0x22ec22d41bbaebdeU, 0xf413ea81040dd00fU, 0x22fa2527d0f9fcf4U, 0x20e60914171ef9e3U,
  0xeee12cc31800c4caU, 0xa708ecb51ff80324U, 0x8b20eda964d752b1U, 0xacf005cfea3a28efU,
  0xe561edbf3f139e13U, 0xfb0d810e0928c3aeU, 0xb31bf1fa2fc336edU, 0xbb0316ed2218f7c8U,
  0x536e3f74c439a17U, 0xdd30bfbe5019ef1cU, 0x8309280372e873efU, 0x96d9e3091939da2fU,
  0xfb5dd49a111fd3e5U, 0xe73790d42a150de4U, 0x38f11f3c193c12c9U, 0xf343c9d1103c3416U,
  0xf51dc5b105151b01U, 0xcd9ea0002e2ef18U, 0xbff04483720f6c3U, 0x223ecef24201c0bU,
  0xbe00ccee32c3ffd4U, 0x2e5d2f345d2cc33U, 0xc31f26b343bff86U, 0x352bd62eef130809U,
  0xf21407b948990604U, 0x17081c2c42eff44cU, 0xa7e2ffddfe25fbfeU, 0xccffebf03979df15U,
  0x51280ef5f8e146f4U, 0xee18bdeaeaf0f4e7U, 0x9dd21027dc0806f8U, 0xfabcfed9175e2b3eU,
  0xeb32011a35fe170cU, 0x28e2d29c2a011f42U, 0xc9fae6311f3dd4e4U, 0xe401d7072a28d64eU,
  0xeb344e1137de03d8U, 0xd00ff4c745a9d825U, 0x1433e7312ad601f4U, 0x4df1c17024c0e7fU,
  0xfa19d9e636cf02e0U, 0xb8cbc833fdedf238U, 0x25d5ca0af1ec1f1fU, 0x2519ea33e06d1434U,
  0x12503ad43ef30200U, 0xc6c9c70b04f2fcd0U, 0x3114b5171bc31d1bU, 0x16fb0aeacf58e54fU,
  0x142dd2d30e390eedU, 0xb5c1c221d29bde31U, 0x2a2734c8e1c02a12U, 0x45323d3116074001U,
  0xe8ec24e10af4fe1eU, 0x25e8393f1d8317cdU, 0x3601f8e2ffc1062dU, 0x4a0b6720ef364728U,
  0x2ea22f005e13a28U, 0x90b26431bed018aU, 0xa25e59715d74c22U, 0x352257f9cd312b19U,
  0x21c24cd2d21ed1fU, 0xeae9263f2ce9ebcbU, 0x80c61f51d121e27U, 0x1fdf464a24304a50U,
  0x83f28fa48d751c5U, 0x805e7293612aa32U, 0x13a8403000092e15U, 0x47ea3b22ef0c3546U,
  0x431e100247e6fff3U, 0xea1df70bfee3b9d5U, 0xfdf553033500150fU, 0x321a460d2135473cU,
  0xf810dcf417fdebd1U, 0x2ffacf340009e609U, 0xf210e2ddcf12c532U, 0xaffe29dc2d010818U,
  0x1ce4e4fec6ed49cdU, 0xf2ee04cfe8401af9U, 0x133101e2e1d3c413U, 0xd8f50b17e537d5e7U,
  0x16d921cd06ed1605U, 0xfdd628e1194758fdU, 0x113f22450aeddf4fU, 0xf4260624f4132fc3U,
  0xfdef4ebfa2be602U, 0x4408ecac16430923U, 0x141d04adfb00e834U, 0xc60a3e05ed08c2c2U,
  0xe6030f1ad8f817c0U, 0xd1d009dbfaf32a0aU, 0xfac6e6dbbdfeec30U, 0xf9d535ea1c38d80eU,
  0x1b92a060904daU, 0x19db0318ee1557e5U, 0x271207c2cbe4d454U, 0xd5f52b0231f207dbU,
  0x8c100ecd525039bU, 0x2eddfdc6ed1cfce8U, 0x2e16f53efe14c54bU, 0xb50105f406dbf81aU,
  0xee19ddc6c7f11c03U, 0xff552297004515e7U, 0xb00613eddafbd572U, 0xd228e3fcfcfbe521U,
  0x45e82a9fdbf31bfdU, 0x421dbb0e51c2ce1U, 0xf33cce3c1d2ee848U, 0xa00b24e2f9f0f92cU,
  0xd4ef1eeef105ede9U, 0xeb1a33810a3a09ddU, 0xf607f80519fed321U, 0x9f30e17f0ea1720U,
  0x50fe8fa04e932caU, 0x47f5fce4f911f9e7U, 0xe0181023f315e8f6U, 0xfb03e216f7e51827U,
  0xd2bcb0b21f812dbU, 0x46ebd6d8dbf6f7f2U, 0xf3eb1405ff11cf04U, 0x1b1a0f0f0dd10837U,
  0x2716cd01f0ef1ebcU, 0x7f13dfe8de00f6e9U, 0x9edffe5fa0b0b25U, 0xe6e6271df10a2201U,
  0x1d261d1101e622e1U, 0x2cfaeb0ce8cbfad2U, 0x704f3f1ece91b23U, 0xfff70312d5eb19f6U,
  0xfb36ff2109ea02e9U, 0x12ffedeeedf60adcU, 0xe9ef01f4dafbfaf7U, 0xe9df2104d1f80807U,
  0x1437081901f5fde0U, 0x43f5fc07edeb0de9U, 0x6eb200a0d0fed16U, 0x10111422fc131827U,
  0xec2ffeee0f0afafaU, 0xdfaf9e4dfcd0af2U, 0xf7f62512f420e0e7U, 0xfb0bee2bdb0a1614U,
  0x1213e5000f0d0719U, 0x2fffd5eeeee5fcd2U, 0x140c210afe21dffeU, 0x3000124e6f8f629U,
  0xf2feceb04120ef8U, 0x26eaddebe9e726e0U, 0xfadd21ead130ced3U, 0xdf14f6270d3a299fU,
  0xe6d4243734f067edU, 0x728f61309461eecU, 0xf9fa070ff153f7e5U, 0xccf3e4150ff9fcd5U,
  0x4e82e1f47f755c9U, 0x463d10eaec2e2f00U, 0xf1d31c00fa55f2ddU, 0xf11a1d2ff91c10b7U,
  0x15f5441312e14be4U, 0x512f2802fd1931e9U, 0xe5313d1513333508U, 0xe0e0fc11f9a5efcdU,
  0xc5fe04d119033bd2U, 0xf74d03ee397805f5U, 0xd81d1d1729262caaU, 0xfb101228a7fea3U,
  0xaa15ea04053227e2U, 0xd14deaef334b07d1U, 0x9f11a3b1a2d32e9U, 0xc2df1e1f14bb11d1U,
  0xdae5f8a5fd0a49adU, 0xe75709f13d7fefe2U, 0x10c4fff9188deeU, 0xc3fde1e4deefc8c8U,
  0xf833f806df282635U, 0x59d6ff2ee2d236faU, 0x16f38c170c63bdf7U, 0xe70cead902cb00caU,
  0x1a23d5f3ce2c074cU, 0x3aca1e16ffba25e4U, 0xae4a4ecf915a4ecU, 0xbdf6ac94f5d3efcfU,
  0xf2c1717f2f74714U, 0x5bcb1b28f2ef25c3U, 0xf221bcc536f9c1faU, 0xeac5e8cb410f2f24U,
  0xe824f7f4e1e9e2d6U, 0xdf32d8fdde16d7b1U, 0xe52eacf40bf5aa03U, 0x37d8e8f8dbff0046U,
  0x150df3c5e81b05edU, 0x1ffe0120053dc9caU, 0xf50601e03625b61fU, 0xe3effcedd5241002U,
  0xc041e9dcfa3232c0U, 0x258b6f2ef298183U, 0xe84fed0f1f37f9e7U, 0xe9f3ca1a47d7321eU,
  0x322c0cb82c0e1203U, 0xb19072c21cafdf2U, 0x1444ecffeafdc7d4U, 0xbedd53e1dcf0510U,
  0x2e0c2bd918ec12bcU, 0x39d019e808f6bd22U, 0xf461df150437acddU, 0xef13e9cd17173d3bU,
  0x113838dbebc9d70fU, 0x28cff71c17d7d3dcU, 0x116cb7f7de17dbbaU, 0xdc4142094f301632U,
  0x5e09f8e656fb2c0fU, 0x1a4e313395ae09ffU, 0xf173be1af250ebb7U, 0x64020dd57423c43U,
  0x6f2417f142343d3fU, 0x47fd2a2ed9e52617U, 0x1667e8e8003d12dcU, 0xe44f1ed83d072c22U,
  0x133ef8db1c3a2023U, 0x3430e21ce02eebeU, 0x5f2e500100e20d6U, 0xedddfce408fa17f6U,
  0xe83116d4ff07df02U, 0x11f2f2fdf50f0ae6U, 0xfbec030e1fd7fae1U, 0xb0b0ded020ff5eaU,
  0xf21181fffae9d219U, 0xf2edf5ecf50b17ecU, 0xd613fc2a1e1622f1U, 0xde0b0208191d09ecU,
  0x1905a7d03901c60bU, 0xee8f213120be812U, 0x8e5db162f3cf00bU, 0xf4c20c1714e4deefU,
  0xeef4073714170c4aU, 0xfc2a02f6dc221a04U, 0xedc1fe023d200f14U, 0x1c81f1313cdd8ecU,
  0xea25df2c00f4fb22U, 0xfffefd120d190502U, 0xecc9002c4532e704U, 0x2de55201a12de0eU,
  0x6fee82900fd0133U, 0xfcf82614050b0346U, 0xeae6f007e2e816e0U, 0xb06c82408c2f2dbU,
  0xd0cef4f911f91617U, 0xec010b09fe1305ffU, 0x11e4fbfd1ae713d6U, 0x407e627efdc04deU,
  0xc9f8f8e80fe6fef1U, 0x17281ad8d90333ecU, 0xf80c0a18f2ec2cd5U, 0xfdeccf15dae3dad4U,
  0xe498c9ee18d0c81bU, 0xd18c2e9fe17140eU, 0x1518e3da1aa9eca2U, 0xeb08e5fd180bb805U,
  0xcbfae409fbd2ddcfU, 0xfc10cdc91e2bf5d9U, 0x10fa01cffbd0eaeaU, 0xdb1afa14e6f2bb30U,
  0x2409cffb1ffdecf6U, 0x2805f4c20f2ff302U, 0xcf2d8d9dbd0c6b8U, 0xea28d0fe3129d933U,
  0xf11fae313b7fdfcU, 0x2d02d5b51616e121U, 0xd3cefdf34bd513c8U, 0x20022f306e911f9U,
  0xfedbb11ef1303efU, 0x1bda2b0216ecd1eeU, 0xe30dfadeff0e1df2U, 0xfa0ae8fcf3e7e0f9U,
  0x1402b018c821fc24U, 0x6c60212e41ab8fdU, 0xddf8fcf03af01bf0U, 0x162e1619fc06f9f1U,
  0xeb2fd8090c060309U, 0x27f40b12ffe0bcd9U, 0xcefefe70bde3af9U, 0xfae213190df4eb16U,
  0xd221b921de292a49U, 0x37020324e0d5ddb7U, 0xdd2ddb0b20d63cb3U, 0xf30043fb3a08e943U,
  0x23c307eb41e73cU, 0x1533c44408d004dcU, 0xeffaf1f924f31df0U, 0xee282ffc2904ed24U,
  0xf04ac64e291aed7fU, 0x5632fd31f8cbd3fbU, 0xd19513c5b60e3e0dU, 0xf6ddfaf5ecfb20f0U,
  0x320cedf4ed2dbe1eU, 0xcdc30ab6ae2b19f0U, 0x92d13703bee362fbU, 0x14d31706fa1a1f1eU,
  0x400e9f8e9e6bc1bU, 0xedead18f13404c08U, 0xaab90703082f26daU, 0xedc3cd2df422d720U,
  0xfea17fc30e99ff7U, 0xdad00fd53b500a1cU, 0xb99ffef40c6e2402U, 0xdd1bf706f82f22e3U,
  0x22fde14e23fdc332U, 0xf71ff2cfea1f2d2aU, 0xcd107310e441cc3U, 0xf7e01a2fe24f2b05U,
  0xe903ff423529f939U, 0xfce918ba06fd1022U, 0xf9a9132f012e12b5U, 0xf125392e141e2a32U,
  0xff2193e00231335U, 0xeaeaf4d53f34351fU, 0xbba5521b0ae6f40bU, 0xee29d632b7c0ccd7U,
  0xe0e613e4ebb02328U, 0xd40ffa25c6f3e5ddU, 0xe2d95befd4f827c3U, 0xdbf9e00b0ee0d6f4U,
  0xcecdb14e5872c1dU, 0xf1ce05b0f11b281bU, 0xbcbc210f1a15e3e5U, 0x16eaf944f32815c5U,
  0xfbf49dce3c8108e4U, 0xcecc12dad7d3251eU, 0xd8278826b43e9af3U, 0xfd0c1c30e03d70dU,
  0x2acaf3f9110d16efU, 0xd9deffecd6d6b4f6U, 0xe5299709c945be1fU, 0x2adec8f508ccf220U,
  0xfac9c90c213801caU, 0x606f9f6fbf3b018U, 0xdfc5c02ab3618124U, 0x1dc4f8ef0703eb34U,
  0xedada0dbe3912d7U, 0xfa28fffcea028dc4U, 0xf724db1c2532fbe5U, 0x19efe924411a2e15U,
  0x3a1e15e24802c81eU, 0xe5f21e1bf50cf71bU, 0x34f5edf10602e4eaU, 0xf809c51045170b16U,
  0x3b2800ebfa32dafbU, 0x24ea2b160014e33fU, 0x1416dc330424fcceU, 0xf2eceffe0a1c1cf5U,
  0xe0b12ed3352adf9U, 0xc5d31b1de7fddbf5U, 0x386bb9f12119f8acU, 0x27eef80a131fe816U,
  0x25ebea32e019f037U, 0x58651239f5cb13c9U, 0xfb6cf5fef70811a4U, 0xfff3eef3572537f2U,
  0x5f532af731631a48U, 0x361d1557efb519f4U, 0x5935d40118210f90U, 0x3cf600db150fe7e7U,
  0x1a211030033af44cU, 0x1728cc15f4eafbffU, 0xc919109a372f3ec7U, 0xe516c5012433f210U,
  0xe233fd090141dda3U, 0x63eddabf0d0d04e0U, 0xf0ce2d023d1530f7U, 0x10dffbf31a29e1daU,
  0xe529f6ea082adfbbU, 0x2606c5b330f128e1U, 0xbfb43db7562449e8U, 0xc0e506f1d847d4fcU,
  0xcc2f15e4f707d8bdU, 0x2e1af2b73c32fad2U, 0xd1ee02f9d305ec02U, 0x2fea4119f21ff300U,
  0x906f5f945f724fdU, 0x2cf2dae03d181426U, 0xcdffef45df16ebfcU, 0x3fef4ff92fdf0331U,
  0xe41c1bd21bc7e5d8U, 0xada0ced3bfc3715U, 0xc319101aec191f01U, 0x43103212e4f1c11aU,
  0x32918cff70aebfeU, 0x4bf8e0c07f34e917U, 0xe42be6040809e9cdU, 0xe105fb19264e2326U,
  0xf1f90b0034ac0904U, 0xf9d7d7e9d91c250fU, 0xdb07f5fd0302f60bU, 0x3128f5220e2f36f6U,
  0x39e202ed4bcdd6caU, 0x29cdf6ece4fb0801U, 0xee4ff00a09010ed5U, 0xa08e92f24613b3fU,
  0xece11f0311d30ed3U, 0xeeb6fbcad604d0edU, 0xe900becaf902ae6aU, 0x23d54d3b13193922U,
  0x66ed0715d6ae1685U, 0x33e4f7c4cc18e0d6U, 0xe816dcf60af4e866U, 0x231065f1fd232b07U,
  0x2fedd153ffecb9e7U, 0x62f2dde4d95be7eeU, 0xddd4cc3ddaf1fc54U, 0x3cf17fff0ddde135U,
  0x1cc303d8ea17c2c7U, 0x450fe7d9032413ebU, 0xe72accc1fc041473U, 0xa51a593e07083ff8U,
  0x2e530a0017fe04c1U, 0x37c50fe9ce17ebb3U, 0x2c181311cfbbf62bU, 0xc1f85afd2420f030U,
  0x140fd0090ef8e40fU, 0x5ee5faeebefb2baaU, 0x33fa31ee1de50356U, 0xd5bf45f2d1b4da05U,
  0x312c2405ea31bca6U, 0x28c1fed7d1d211bdU, 0xf215bd4124ffaf72U, 0xdf0f01b1b38fad1U,
  0x111811e734fdc729U, 0x272fbdd3dc1d14cfU, 0x19e3ff240402f76aU, 0xe423013ff729f925U,
  0x6f0e61d2517c410U, 0x1127c1e5c83a37cbU, 0xe32404580906e626U, 0xdde1602bd5f33805U,
  0x180613e0041de6ffU, 0x280219ddfe1d15cdU, 0x2701ea5cfcdff705U, 0x3ff1c1ef1fcc85cU,
  0xc1cede30e3adb07U, 0xd721fd0830f5c420U, 0xb202b3af3e5efe3U, 0x1001dfebe308f008U,
  0xcd31fcfd2ef7ec10U, 0xd215dcf2ea0dbe32U, 0x28e5fc19f8e81411U, 0x142cd8280914c54aU,
  0xf29d2e21e23cf06U, 0xcff702ecd0f9ec1eU, 0x401420f31d03263dU, 0xfc12cd122f0bf449U,
  0x183a2d291ce41034U, 0xd21404fdffc7110dU, 0x14f51425e5f807ecU, 0xf4f0f20ce216eb0eU,
  0xc937131ff0e0de3dU, 0xd22516fcd910192eU, 0x2efe20e204f3071cU, 0xff8f124e83e0b37U,
  0xd630161b2303c72eU, 0xd3e828e4b60c1c44U, 0xe05c3a27e42a24U, 0x3706ea34e9baf805U,
  0xdccef1bbffdf1ce9U, 0x28b9ece47f340536U, 0xfc2037290ddb1e3dU, 0x1816d0e31ae3eca7U,
  0xc7ce0bd417cb1ffbU, 0x1befe8d51f3fc338U, 0xded75927f3cc0831U, 0x5e01eb2a37b1f2e3U,
  0x9ce7e6f42ce711d4U, 0x22dc01e65328f468U, 0x2010e104e8eff307U, 0x2410ef0d11d6d843U,
  0xff38f21000bf1b05U, 0x68f6cedacdf6eff8U, 0xde11000ac3f6e39eU, 0x1df8f6ebfbcde7eeU,
  0x1337a0281af21319U, 0x5906d4f3e63100fbU, 0x19fd1918b5b7d4ecU, 0x2904011c07e512f3U,
  0x2411eafa1dda13e1U, 0x4c1f070cf304ec09U, 0xecd103f1111912e3U, 0xc502e83004feef01U,
  0x587adb10431639dcU, 0x55aeedddd607e5d6U, 0xb9e3fa2d02eee4e4U, 0xd02dd10618f3dcf0U,
  0x2048d436401001e6U, 0x15def7ebc408f7cbU, 0xb4ce04fb29f1c0d3U, 0xc21fcf00f3f90a3dU,
  0x4150121a421cee03U, 0x3bb30fd5cd11dee5U, 0x20c22b361b3519b2U, 0xd1f60f49d806e878U,
  0xce49d9ef2c0503f6U, 0x4cb15ffe0c3fcddU, 0xbda4f280e222ea9U, 0x3f51d36d9f62d55U,
  0xc72ac10f200dce32U, 0x5fdcd5f3bcd123cfU, 0xe0ce650117033eb5U, 0xb02f506d70af57fU,
  0xcc78e60ffd1b0831U, 0x13e405e7f6e22dd6U, 0x9ddcff1ad2281edU, 0x14f3c44102b2a423U,
  0x1c9df6f21004cbd5U, 0xf0efebf6e7eaaf26U, 0x4519df15bf17c5e7U, 0x1b06c215ffc2c632U,
  0xe8aa01e20b33dee8U, 0xf2fa0a130ad8dd17U, 0x5007c71dd60f8ee0U, 0x16e8e9e623c2bf0dU,
  0xedb1fe14ef30caddU, 0xf1ff0ae7f1d9c922U, 0xd05f1130d15d626U, 0x231ab219f114dcecU,
  0x31fd100c0d3be52cU, 0x213050ef3fe3103U, 0x22f40722121d0016U, 0x1425b6ff121fed0eU,
  0x4befee15e85ff71aU, 0x19d72ffcdcf2fcfbU, 0xf107f1190742f5cbU, 0x33fb11e1031a0cedU,
  0x3ff1fb2cf3630001U, 0xcecd704f3fd160cU, 0xfefbd1dbfaf00c49U, 0xee9de4e2cc1df4ecU,
  0x111fcf4bd12edfbU, 0xdd18e7400e11f3f2U, 0x926e7e436ed2ff5U, 0x15f31be1c21de7f7U,
  0xfded012aad36dc2dU, 0xf937d11ff4152bf8U, 0x80309df1fe81000U, 0x20e124c7f115e80aU,
  0xfe323ce46f220U, 0x2a29066413e519f3U, 0xc9161fbcfb0633a9U, 0xc99fdcf8df3caaedU,
  0x2620f2d2c017ccd1U, 0x1a21f1d4400723deU, 0xbd233b0355e65a00U, 0xa1d51afc2a55dcf3U,
  0xd627ede5e0e6bbd1U, 0xe9e7bf9f6e0b25f0U, 0x81065aaf5b4765fbU, 0xaef6c8012457cbfaU,
  0xf039fbfb0507cfddU, 0x25100fc67235ef27U, 0xebcdd40bfc0a1101U, 0x7c04471e0fc7a00aU,
  0xc6cdbad116d81da9U, 0x220bdce04b21f449U, 0xad0edcff0f30c1faU, 0x65f434da1d0ee423U,
  0xdf1515dae5fbe0adU, 0x1d708c657f6bc30U, 0xe2e0f414192e39c5U, 0x71e0200d2de49e02U,
  0x60cf69401def8a3U, 0x4b2905db634fe942U, 0xbe0fd320ce19d5fbU, 0xac27d3eb422ffc0bU,
  0xf1caeccf29f0d1e7U, 0xa80506e8f438e73bU, 0xab031be4d5f0e8e8U, 0xa1e3e20a2b3705f9U,
  0x47dec7cf46ea91fbU, 0x83cd09d9380b0842U, 0xcb4ef63cb81ab7daU, 0x8c19d5155061f0f2U,
  0x39f2dbf930c2d903U, 0xa7f628d30c24eb07U, 0x28efe211c3fafabcU, 0x23081a37e3fdfceaU,
  0xeaece3ec1af4c9eaU, 0xe90cddd9fbfb091eU, 0xff8fc2df4f41fa4U, 0xfb12280c11fc13e5U,
  0xf2dbde130d1e0a08U, 0x2d1018e2022101fbU, 0xefe508062beb1fdfU, 0x2622ec21d32ed111U,
  0x5cfe4fd03ead121U, 0x18c3ddb6d6e5130aU, 0xeb04fa341a1100d5U, 0xd603cef3fdd50ef1U,
  0xfede02130f24f509U, 0x916ee05e62004f6U, 0xdf1f08f7020fffc7U, 0xdae0c9e4000b48cfU,
  0xf005f6e334f1ed12U, 0x2140209f31e0fd6U, 0xe1f001f821d210faU, 0xf0f6fb0516eed8d3U,
  0xd405f2f016fbdde3U, 0x12000a0e0e0d13e4U, 0xdccef5e541df60d9U, 0xe3263afdf10ec808U,
  0xedea9ff8ca14dfffU, 0x25040617edffe1e6U, 0xf7dbe8f23abb54afU, 0xde0743c72435ab05U,
  0x1c16ba17d73cdc0bU, 0x33fec607f407fe08U, 0xdac6de012fb83ee7U, 0x36061df0fc1e811fU,
  0x31f5ade8e81fed37U, 0x3007bff0ef08fd0eU, 0xfefa353314dd1353U, 0xebd00219e3c400cfU,
  0x23f557170b0f0a2aU, 0xbc270e1eca26d569U, 0xf0f36161ef8cfe5U, 0xfc1de754ccd33ba7U,
  0x2afa2cfb2dd20330U, 0x933b362cccfcfa12U, 0xf128666de19e1c0fU, 0x21ccf864089f13a1U,
  0x30f8110806e2e226U, 0xcc3c02f01e10c668U, 0xdecc10befd091f78U, 0x34ccfa01df4bd9dfU,
  0xfb0230240b1e1746U, 0xaa18e8fce20df421U, 0xf06f0df0d270214U, 0xe420cefc000a01daU,
  0x47ec3408edfbea12U, 0xa5ee1b010a1cdad2U, 0xdff1f8231105e054U, 0x25ecde34f013b7d7U,
  0x1d0eeeea11dbc9f0U, 0xd11b2914f8ecfd67U, 0x9f45e3d3af8167fU, 0x25fb2cdad3468e03U,
  0x1cf148bfe7e2be26U, 0xcbe11af6ef1cf14aU, 0x46eb302f1747f738U, 0xe0173212c2e6f4c1U,
  0x34c63ff0cbd4d320U, 0xa01b02311019f9daU, 0xedde3468e542336cU, 0x140b113e1720b30bU,
  0xee0ad1e321dee006U, 0xa8ebe2015d2ebd55U, 0xe3cbd437ca6eefe6U, 0xc4dbf52b1ee4f5e0U,
  0x7a40d3dee352e06U, 0x17072001193815feU, 0xe5dad73dea7afdd9U, 0xf10aec16ef1420d6U,
  0xeeb4e93624e01000U, 0x183721e7fef814edU, 0x6bbcd57d1640200U, 0x9aca0959ee14f8baU,
  0x3198e63711fffffbU, 0x192336e23a1ad62dU, 0xf6ef30fd0b6335eaU, 0xbb81d1c15cfe230U,
  0x19132915371a0f00U, 0x1eed01074c0a20eaU, 0x31e21e1328100d0cU, 0x1ee6180ee3fae01eU,
  0xf80326f7f93dfb23U, 0x1f601f034d2f9eeU, 0xf6fe3c29320e3b15U, 0xdd62d4002e9f304U,
  0x30341bfdf718f209U, 0xf0c41f196dd0240bU, 0xfa24f2ff9e7ffbedU, 0xe5f6f80b01dc2aa8U,
  0x58d5011514fb1f25U, 0xf5a0190accdb1d19U, 0xda32cbff01532cecU, 0xfaecc72be60d0dbfU,
  0x19e7130f16e604edU, 0xdfd72c09c1e5fc01U, 0xd316cb39d13ee1f7U, 0xf0fbeb1f29f23291U,
  0x44bc0e2242c314fbU, 0x20ee0928effcf7f5U, 0xc6e5c7fd16ec3526U, 0xaeff7e7254eeec5U,
  0x3ee15c25f8f6de0aU, 0xfdd21ae2f61541caU, 0x1f6faf901193f8fU, 0x1ad6303905fadaddU,
  0x11f534fc3f17ca1eU, 0x1af8f3e00a2be0c8U, 0xbcf0e2eef81c24e5U, 0x706f9071318b7d5U,
  0x1de2f437380c180aU, 0x13ecfdeaf90f1a04U, 0xfbd716ebf2f6f2baU, 0xfcf605f0eb1bf2f1U,
  0x30eaeb2f0df7f62aU, 0xe756f253e9ece2d9U, 0xcc1f06f3fa221b81U, 0xd5f503fe28abf4daU,
  0xac80b261ae6ce16U, 0xd42a19fbf6eae4f4U, 0xde1afcf607ce19caU, 0xd2e6cefd29f900c0U,
  0x31e3f12431013812U, 0xd6270d15f71b03deU, 0xf4d2bdd1fe133018U, 0x42d2ed9e00294daU,
  0x12d7d2f3ef1ff829U, 0x10371824ea10fef4U, 0xd7cb0ad5d7ed17ddU, 0xfe061d150cd205d4U,
  0x2e6ba1a2f41bb2fU, 0xf82202fc1111c1f3U, 0xd9dae2e519de00f3U, 0xe611f2f3eddcd5d3U,
  0x2f1c619f523eb31U, 0xd101d0ae9f20af7U, 0xa01232cd16f81ee6U, 0x2ce1d5e0fd0e1e1aU,
  0x21c428d8d8ffbcbbU, 0xa2e10dc62214efe8U, 0x9dfffbec5038230dU, 0x23ddccdce92cf4c8U,
  0xfb27e71b35f9c495U, 0xd5e702e02b0008f4U, 0x8dfb25295d573a20U, 0xf6e7dde22b47fd04U,
  0xfe00bdd24418abc6U, 0xe71201e24e1efd2cU, 0x93cb2728e4ffcfefU, 0xd3e52ef1032bcb09U,
  0xfee2d5e31bede602U, 0xe82df4d70b0afd20U, 0xf4ccd61a2541d801U, 0x2d3d43ce31152730U,
  0xdc23c0f83d291dc5U, 0xd86e11c40d310f0aU, 0x9aeef54a271ce4f2U, 0xfc320a5c30f8aff2U,
  0x2526e3f11904efd2U, 0x2d3ae9d67f25f12eU, 0x9ac5f3f13096c6dcU, 0xcaefbbcfc7ecd602U,
  0x5cbcbf3caeb1fe5U, 0xda1ee92ac4fc11feU, 0xafcbd3f2e1d6efd5U, 0xbed0fffdf4ffd4ffU,
  0x34e0dbf2f5e2e505U, 0xf8d3dd28fbccb637U, 0xfca2c010bb6a5c2U, 0x83e8d2ef202ddec5U,
  0xbecae732beb4c8U, 0xc5f1f6080008f2e9U, 0xcc3a01f13b0bc3c5U, 0xcbead81224e10bfbU,
  0x3d4e41f64ed70a14U, 0x23620157e517a8c4U, 0xe3631116362eeacfU, 0xd8c8ed18f2e5fbd0U,
  0x225a2401270d21fdU, 0x14521016df0ca1e9U, 0xdd2e0be70bf1c5d4U, 0xa6d5d5e230d7dae3U,
  0x355030e4111c1737U, 0x177ffe280ce9d0d3U, 0x7e322f3ec289ff7U, 0x5038efb33e320e8U,
  0xc03f5ea4be0100dU, 0xf51441e4f2d20eU, 0xf122f3f00d4cbfbaU, 0x22f7b8ec2cfa15e3U,
  0x20fa32fb54fb1d0bU, 0x241a122704e1e9fdU, 0x1ce8feda2b5aa318U, 0xfcf4aa0807d5d723U,
  0xf41937e74b30031aU, 0x61c020a10eaca24U, 0xd04df049d30cebf4U, 0xcee5fc0b51f82d1dU,
  0x45152bfd331835dbU, 0xf7f5d132f6d1d308U, 0xe506ed08dd70dfd2U, 0x41511e3f3e61604U,
  0x110f1c2506050df7U, 0xf914d121e6d2de04U, 0xd30a0839e86bc532U, 0xae04e90838e8ea1aU,
  0xd837381a0d4341daU, 0xdf11f0423bcaf024U, 0x92ed8ff1300efc0U, 0xeac9ebe312ea193eU,
  0xa33f71b1f20fe22U, 0x157fe53ef1d6ecf7U, 0x251df5e8291afdcbU, 0xf3f302202de7160dU,
  0x2024e113f526ef0dU, 0x1159f0350112f8e2U, 0x17fefa030bfb0fdaU, 0xebdc05e7fce82245U,
  0x3646f9fdff150227U, 0x1479ca2d0be11013U, 0x1ce5f41e030b1b14U, 0x24df311002cae227U,
  0xee00f9cff0e206f0U, 0xed12f21102bcd522U, 0x33e6e4f9160734fdU, 0x2be946140fb80605U,
  0xafa02ff160a1012U, 0xd4e8071414cbb905U, 0x22e0e9f2261f270dU, 0xefdb4c1b38dbce17U,
  0xdc01fae916f605e7U, 0xcb1ce40b32bfd51fU, 0x3af82ef5eeb2dbU, 0xfdf9c7f644f42821U,
  0xe1c140411da0511U, 0xf2f20a2e00f1d9fdU, 0x816de0b0cece50fU, 0xd8fc03f608f72d18U,
  0xff3507f31fcc050bU, 0x20e10517da0e00feU, 0xd315e426ea06c5f7U, 0xf4dbd8f8400c0637U,
  0xf100d0915db0e1dU, 0xeadde7eff6f6de0cU, 0x7f9274f26f8dfedU, 0x7d4f512dbd1eed8U,
  0xde43e80deaf0c005U, 0xe2c8d13040d3e83dU, 0x1c1d50194deee0ebU, 0xf4fae3dbc7d708fdU,
  0xfc2207eac9ed0d0dU, 0xccf3092e041d0c40U, 0x311df42bf305f7U, 0xdbe0e310eb0c22c6U,
  0x1238080623f3d70fU, 0x15d1033dfef7f7efU, 0x212ed0f20e5f0f1U, 0x10f7fbde1651bd09U,
  0xa0b092bd8e8fd40U, 0xe445e8f004fbf931U, 0xffc3e800612ad904U, 0x5c81af2dc1dd7ecU,
  0x280b1739d6d8fc39U, 0x3d502f80efee520U, 0xf5fdf90334df1714U, 0x11da25effb60e20bU,
  0x2100312eeff1dd44U, 0xf339150eec10dafeU, 0x8f07a21f904caf0U, 0x30fc8118edaaeba8U,
  0xc5bdeff3f9c7dbedU, 0xd7f1df1f00e6044dU, 0xd8e671f3092bddebU, 0x3125d4cfc6e3f3baU,
  0xc3d61ec816ade129U, 0xd1f9e7fa0ef2f656U, 0xd6004003251500edU, 0xf8dec91913c61caeU,
  0xb4c204e91ad5f70bU, 0xfce10a291cff213cU, 0x151f2304fdd7f4ddU, 0x13f31130462207d8U,
  0xf9d91cf7220404f6U, 0xb3fd00405edea11U, 0xf9f71f0f0be5f2fbU, 0x10d735103d2246e6U,
  0x8da1805361fefeaU, 0x8340d2013fde6eaU, 0xe01f1bf11bc8e5f5U, 0x2c0223171d053cd6U,
  0xfeef51df24c520b8U, 0xfb6c071a17e0e1e5U, 0xef25f5f825032000U, 0xfcf11ddc03161a08U,
  0x12270edd14e03a0dU, 0xef2dfb3610e281f0U, 0x2101fef50cf02700U, 0x35e60e0be6040fe5U,
  0xadffceaf4081429U, 0xd3f7fb24f21aa5d2U, 0x31240b0924e8f2f5U, 0xf30bfb1df80840f5U,
  0xe40ee8c9f8c41c26U, 0x511071004eb88fdU, 0xfc00131003f22311U, 0xd4ea50241e090f4dU,
  0xe429eef21b171af3U, 0x223001471205cf17U, 0x51a2125d1fc070dU, 0xe8d63d1b1af75541U,
  0xdb06e426163f26faU, 0x2f0e4720ddefe07U, 0xf90d11fe1715110cU, 0xe822242632e2122dU,
  0xc1ae1f820070101U, 0x7082339f1d8ce12U, 0x33debc200244fb24U, 0xe92bfbfa3ce5d9c2U,
  0x8eafd422a2125a1U, 0x81f1ce605220de9U, 0xf4f2813c0a2bf307U, 0xf211fff3473503ebU,
  0x2de6f81a19084fd8U, 0x20552fa0220f705U, 0x2f189120e62fdf2aU, 0xea0a07353a15c1f0U,
  0x29aaf951050115bdU, 0xfa09010dfd26d906U, 0x3bf33fcad56835f4U, 0x18f804e908f10907U,
  0x1ef3fe2b0e73fcd8U, 0xf911f31d12e5e3d1U, 0x440620d7dd412942U, 0xf0700f7d2231715U,
  0x450f61e50e3bfbfcU, 0xffe30a1905dde8ecU, 0x291437cadc32f513U, 0x26db00e0fa1f280cU,
  0x3210441fe45820fcU, 0xe6de3b0a01ea28dbU, 0x2e18d7dfda432916U, 0xe9e3f409e1f1f299U,
  0x12c9f706232b37f7U, 0xf2bede22f50b27f5U, 0xececddf2ef3ef16dU, 0xeefbf7ed04fc25caU,
  0x1ceb251139f261d4U, 0xc8e01024edfb300eU, 0x1c0097cef1310950U, 0x2b8051502f6fdc7U,
  0x50dd123deb241324U, 0xe0cc4201e8044c01U, 0x10150febe21ade7fU, 0x8de090d1dc01af8U,
  0xfcf3392203174c03U, 0x51fefc27ebc9202dU, 0x25f9dfe8ed11d925U, 0xfdf8252eb0a914f6U,
  0x1d101d16ec1237fdU, 0x44fc0429cecfd8dcU, 0x1829fb1001f9db1fU, 0xcf142f120bbd29dbU,
  0xfc14352c09d868d2U, 0x5fe92edbff0222e8U, 0xf8cdbfc6eae0b404U, 0xf6f9022a12eaf809U,
  0x1f274ee3e808570fU, 0x18fed813e0ec03f9U, 0x15d4fccdf510ddf4U, 0xf5da2c0db8baf929U,
  0x13fd000af82c1525U, 0x46e2ea18fae5c501U, 0x504eae4e82d980dU, 0xb0e3301dd053922U,
  0x26ff1e02fef54eceU, 0x18cd01d9f5cd0fcbU, 0x1ca07d610f31539U, 0xe8bd48f6e5fd0b10U,
  0xa173524dd2417fdU, 0x140eca6addd4d720U, 0x30f40d022cefe0f7U, 0x8eb3c2ab9f52a34U,
  0xcae5120ffa2513eaU, 0x20e0fb4ccadaeaf0U, 0x321ae0f043f5eb13U, 0xcc05371be8b61cedU,
  0xe7f2390f221727bbU, 0x28df3c0501c5f51aU, 0xda29dafa46eb02d4U, 0xc8f6f7101512fb1bU,
  0x1d23db1c0737e3e4U, 0x37fec06f7ffc6c8U, 0xc02210fb44d607d5U, 0xd81d020e0aee1cffU,
  0x153ff7f735000f07U, 0x863ecf50922cce2U, 0xd109d8f33ead24eeU, 0xc802f522fb09de31U,
  0x1563f1f1ff2ceb10U, 0x77dd9d5020ac1c3U, 0xe7070bf9faea30f8U, 0x22213e4222da0f1aU,
  0x30503c04cc4e7ecU, 0xd4e522192ed2c50cU, 0x173b23fbd7fa5afcU, 0x25235f5132cedb4aU,
  0x60413e62c01e4f7U, 0xd71c032737b911d1U, 0xfc012bf2f0205b02U, 0x16266f2df3deb411U,
  0xf61f03a23b03dee5U, 0xc0e8f41d44e1e0e0U, 0xa930ecfffadec704U, 0xf912d734391c3921U,
  0x1fa400e60b83bdfU, 0xf63c150404c41a02U, 0xcb21021ae8e9e00aU, 0xf4f5f9410c2f413cU,
  0xf429392044d50cc0U, 0xec12f5e3e6e3211dU, 0xc508ddf501e7e1f1U, 0xddecf8ff13135c1bU,
  0x12023aeb58ccf3d7U, 0xf6000ad8f0faeefeU, 0xafbf5fffb2bf3fbU, 0xd752fc0b6400e4e1U,
  0xae414095a103ea4U, 0xec422add074c32cbU, 0x21ee2015ef14b90fU, 0xe267d9025238f7d0U,
  0xf81c1929531120d2U, 0x1c051b13ea083bb4U, 0xf10311202137bd0aU, 0xed2f24165f05f0c9U,
  0x2107190e280343a8U, 0x2c33471e1008e0b6U, 0x2b2f4fccdd4743edU, 0x2cf22b0bf31a0b3bU,
  0x19df160c2e3515abU, 0xf50f0e15431cede1U, 0xed170abeea33440dU, 0x24505600150e5547U,
  0x25186505017f2404U, 0xf92a2028522e16b6U, 0x2a3d1ce9df0552f2U, 0x314b3ae91bee240fU,
  0x1afdfcdf013a2cf1U, 0xf71e09f927eed1ceU, 0xf0f10ca4035cfc20U, 0x90bf53517fc22afU,
  0x4fc9e12642d62cbfU, 0x19b139f6f8ff65e9U, 0xca1ddcd4ef2fcf30U, 0x3b1725134aeb15fbU,
  0x3722fa2c21f444f5U, 0xe5bbf436011c29e7U, 0xe6e6ed93042eae29U, 0xe2e7f1d3e7283005U,
  0x3befd76bbe003db3U, 0x32b74eaf0d2d41d1U, 0xc3ede3dffd29ba18U, 0xfc0de9e9fd07f1f3U,
  0xfcef070e16cbceffU, 0xcff3ddc3dbf519fbU, 0xafe52dfa0005e7e6U, 0x19eceef40022f900U,
  0x7e8fcf707d605e7U, 0xfc1af3cfebb5050bU, 0xb1062206f712e31dU, 0x1f14fef6ec04030aU,
  0xaeafa20d9d2eef1U, 0xd4ff17dd39e1ddf3U, 0xc611fbe4ef0be5d6U, 0x2de7dfeb0e0adf11U,
  0x39dfe8ff0fbfecdaU, 0xe9e50deddbb7f911U, 0xb40100140616d3faU, 0x3f4e914ef040d0eU,
  0xfafb0af7f8ce12e6U, 0xc13eeec00c9ed20U, 0xd9ef141816e4a8fdU, 0x26e6f615de02eb31U,
  0xf4e601160fe5dab8U, 0x2c09f6d962c60821U, 0xbbd2f4080743ea2aU, 0xd4ec0bdfed021310U,
  0x2fd500e3e8cff6edU, 0xeee50ec4cb030bf1U, 0xecff05f5cd2ef905U, 0xe6100d040f06f519U,
  0x8e81f1efce80411U, 0xf6120bb714ebeb28U, 0xaaddd835080bd439U, 0x1ce908db01e6dd1bU,
  0x100fec0cf2eaed04U, 0x13b914c57fd71124U, 0xc2e9b2cf1c1bbefbU, 0xa7f8f9c945e0f316U,
  0x7d80700fd142803U, 0xee8dada1af7effdU, 0xdb2ad82c1f34b30fU, 0x1140d4d9f9dee3ceU,
  0x2bf83a04f4d022dbU, 0x1b0fd2ca10c8fdfeU, 0x27f8363a12ef0cU, 0xdf2b0dbfef390fc5U,
  0xe8eccdd509f02ccdU, 0xc8ff19e90d30e1deU, 0xc6fee4ef3603c041U, 0x9b071598e5f7ed14U,
  0xada3e42f2534242dU, 0xf1e41a1921f306e2U, 0xf8141fca2457a6e8U, 0x9321f71ae6ff1e21U,
  0xe807fff21eeaf3e4U, 0xf5432fe712d5f726U, 0xcd0300c42848ba11U, 0xac0dede6e8065be0U,
  0x37efa61332fc0fe2U, 0x3fc1be1fb3e3802U, 0xf9feb8986a059d7cU, 0x81f2e5b6fc029e33U,
  0xafcf9efd44f4515U, 0x4e1c29f30a01060fU, 0xed00bbfd78f2951dU, 0xa9f9f8fed8ac0a4aU,
  0xefc4f9e5c6220abcU, 0x400208042fe9d4eeU, 0xa29bcd14dfc8448U, 0xce09f9bb12ded2e7U,
  0xf6f9e8c8ed511ff9U, 0x172f24d2eadfc807U, 0x2ef2f10f3e801ddU, 0x5214950ee1c100d5U,
  0xdd25f51837c51c35U, 0x11d5f758199d290cU, 0xeb027fc853e4f5deU, 0x4f5cddaa2e834d7U,
  0xf51800f3ee872edcU, 0x16b4ea2845e53178U, 0xfa2c7f0217031bebU, 0x2dcfc04000a631e6U,
  0xcb0ef3f8f98f170aU, 0x40102be731bd3e41U, 0xf4c5fd1e0adb26f8U, 0x353213face29acddU,
  0xda14020f022712e8U, 0xda12d3c51d4fff07U, 0x1da9394a5cf22b2dU, 0x6a1e0d27c209e48fU,
  0xef1c1dcbd5d019f5U, 0xc6ac21b3394ad2f1U, 0xf2ca03224ce532cfU, 0x2d1b245504e6ee0aU,
  0xf04a33eff3171617U, 0x1717e7d13c5ef21cU, 0x2de77151fd4d211aU, 0x4818a4fbe2dddfc1U,
  0xb833f1f9fbeada16U, 0xd0f508efd2f0c9faU, 0x60c9746e622decefU, 0xf52cb9ecf5eed1c1U,
  0x88d017bcc5f2f211U, 0xacc017c710241661U, 0x2d015419323e23e3U, 0x82eb0fb01cc2a09U,
  0xd8f908a1f2abc744U, 0xfee025084a08ef4fU, 0x11f4fe21e20dfe39U, 0xfefbf1fdfd011a0dU,
  0x4e301dbedfd19f0U, 0xde0cfae9fcf4fcf6U, 0x919f81ce4e2ff2fU, 0xf3f028e71011e8e6U,
  0x29de050101d22cf7U, 0xd0081f03ecf3f5f9U, 0xbeffb230acefb2fU, 0x32f60bfa14ec03d2U,
  0xf1ef3c06cb0df005U, 0x17f013e60233ea00U, 0x14f909d10dd9d849U, 0xbd212ad51402ebe2U,
  0xf1f3e1dbffd8d7U, 0xf6e8171803e01505U, 0xf4fcdfcfd8f6c747U, 0xd70311e2000b0ee2U,
  0x2ea18080606ffe0U, 0xd7fc05240b1219e8U, 0xfdec04b9050ac45bU, 0xd4ee41fef1150019U,
  0x22f13f1fe0f6f3e7U, 0xfcad1a32eef722eeU, 0xdbecc32c1312f95aU, 0xb216f3f604f9e5ffU,
  0xf5cfd0b4e8fc06edU, 0xec2f06c34210dd03U, 0x11f2fe13f713fa50U, 0xda0533f614111623U,
  0xf1c845d204d514f9U, 0xf02ce2d41b10e60fU, 0x3f3d9104511d07fU, 0xd2f305f8e1280911U,
  0x192c1ccecd1af104U, 0xf2fc0ab2340f04f3U, 0xa0e3e523a3ddd8fbU, 0x52efee8f4bfc1f2U,
  0xdbe9ed3003bdf417U, 0x8727c7e830d819edU, 0x98020de303ccd90dU, 0x5e23e2cf2fb5f9d0U,
  0xfeb10ed318e616e4U, 0xafe9d80b49dfdd28U, 0xc52a19082b3cee10U, 0xd1f0e3e72b1b1fc7U,
  0x1ada66c51acfff38U, 0xb745d9c52ae31600U, 0x8ac4cb34cbc6d5e0U, 0x12f9e00ff7dfcb0bU,
  0xad5b25321cdc4eeU, 0xb72905a819e8122aU, 0x821435e405e9b00eU, 0xb23c5cbd6e117U,
  0xff0a08f210fd1cbeU, 0x290ed8fa21a92d59U, 0xa3e90d172f22be05U, 0x14ddc040fbc1ea18U,
  0xfbb24ccafecadff3U, 0xcb37f4dc1b39167fU, 0xcf940947bb0de00fU, 0x2b9e0f05b38fed27U,
  0xc42cdf1dbfb4eadfU, 0xa02fddcf44ded8eeU, 0xcbc24fe446d5e413U, 0x38cce7de9dda0b38U,
  0xedc23fe2ce00181aU, 0xc2f4cee5441cec40U, 0xd4e943456325bd26U, 0xbbbe01e9e8f2fc11U,
  0x26a57a04dbc5c9f0U, 0x8ffacfbf3301bc60U, 0x50f2dfbb1e60407U, 0xf83a2a25e316f632U,
  0xd8f7c510c6e7c8daU, 0x811ae2d439ea35e2U, 0x3ec7536d5d03833U, 0xfaf201ee0b140324U,
  0x30f90e19f7ccdd09U, 0xad25f8d5ec183b2dU, 0x11f82745ddd9f94bU, 0xe52d1ef1f22332ffU,
  0xdf05f811d9e2c6f2U, 0xb015e4bafc02eae7U, 0xc13d9ebb3f81e2bU, 0x120609f3ec2c1ff4U,
  0x35feeb1308c4e4ceU, 0xcbe1fac916e70efbU, 0x2309ea21d9a9e65dU, 0x1ef003e21d1d0329U,
  0x36fe0cf908bfdeb1U, 0xa125f6b20bfe360dU, 0x1ceadc56b9e3cd6aU, 0xf9e236f5e33133fdU,
  0xa230cf2d6bfc8e5U, 0xe02236ad03ea2919U, 0x22c7e41defc4235aU, 0x3405e126010bfb4fU,
  0x1713d5fbf3d1faefU, 0x5d808ce38f01a18U, 0x1fcf0b4300b2d37bU, 0x3109dee901233114U,
  0x3f05f900ca9030eeU, 0x44ea10cb30021827U, 0x31dd204e3403273dU, 0x2a141fecdee92323U,
  0xec1eecbe04addee8U, 0x3db70da9150e3123U, 0xe7090d011a15d6U, 0x1b11e917fff5e7f4U,
  0xf7f2e10900fcf41bU, 0x13ff1ddfe5072413U, 0xe11400f4e110d6U, 0x1f0fec28efe1cff4U,
  0xebf3c21100ede40fU, 0x81711eb0fee0afdU, 0x4040922de071407U, 0x1bf01a1bffffe9dcU,
  0x3edfefc08dcdffdU, 0xf502eddb02210cffU, 0xe3e5eaf611f31403U, 0x9e6090801effaf6U,
  0xf80d0af6f80eff11U, 0xdd4f60b0224fdc1U, 0xe9f3ff00f6e30dfbU, 0xf408feda0bf4e5ecU,
  0x513def5ec02f903U, 0x9dae50f0503f5f6U, 0xf5041c1310121e10U, 0x1060cfefc13eae2U,
  0x4fcd5011f0ad9eaU, 0xf2ed100e141b0906U, 0x18f216fa1ef27ff4U, 0x80b281d0122e9f0U,
  0xed1ceaf0120ac8f4U, 0x21e3f9e40dfad8U, 0xf30801071ecb51feU, 0x7fd230d062dda0eU,
  0xf517b0e406f8bc06U, 0x1a0d09fed4091201U, 0xec1afbf81aff6803U, 0x1a12f6161441fafbU,
  0xf225d10117e1d6eeU, 0xf311e609e521ececU, 0xc936deea3fcefbefU, 0xc8febcfd301d4331U,
  0xf1064adc04ebe7a9U, 0x101f07f5f82001ffU, 0xd10ffde86006f912U, 0x700e915faed1b0bU,
  0xf105fdd115f4e1beU, 0x272600d9dffed313U, 0x9a26d0bc52052702U, 0xe010000adbf7f23fU,
  0xd7f63db61711fdc0U, 0xee3ae2ef26fed7ddU, 0xc739d80e080eb2fcU, 0xfe0ef30c2be23712U,
  0xe8fe032e35cf08f7U, 0xe70906f7080e2906U, 0xbc4ce520dededae6U, 0xf42ef41910071a19U,
  0x47f0051152c80eadU, 0x1126dcc029c316e2U, 0xdefc113ef0ddf60eU, 0xdc0b2cde270c2201U,
  0xf61d1de428efe6f0U, 0xe41afdbd07160df2U, 0xaaf1b908400fe400U, 0xdef5f3fe10d91a5dU,
  0xf5044c3632f129a8U, 0x2d031becec2e162aU, 0xc726e0131e21fcf3U, 0xe2ee24e003162a3dU,
  0xeed5ebea31f0e981U, 0x1a0dfbd7d0e73213U, 0xad19e8311f2e2cfeU, 0xfe05440020070b18U,
  0xf60b30040cf1e4a4U, 0xf426e0deedf73302U, 0xb0f2c6ecdcdbe8e8U, 0x96fe1f0beddfcef6U,
  0xe3c28b02f2e9dffcU, 0xf50103ec083515efU, 0xd9ecf8d107e5e5ecU, 0x812017defdefbae9U,
  0xffc3b302db00ddecU, 0xa8e910060f343ae9U, 0xedeedb16f208fc09U, 0xa5e1ff201803f4edU,
  0xfddc50ff302ee07U, 0xe921fed3083f24f0U, 0xfd07110ce2e0f2f1U, 0x15f8f5e505f7c1e2U,
  0xfcf5f7eed9fe0aa8U, 0x6e607b428fd1621U, 0x19d8e8031bebd800U, 0x25e61ae20a0eb3f6U,
  0xec4eb17e8cb19d3U, 0xd8cae0ddf1fde32bU, 0x6121e23190bf512U, 0xde04ecfb0dfeff06U,
  0xe8fa19f6fb0309c6U, 0xddf9eccb1e180c16U, 0xfdddbb1ad1eef00eU, 0xcfdaf4e9e6e4ceecU,
  0x1de5e2efca10fe4bU, 0x8f830c8303138f7U, 0xc211acf6f1f4fc09U, 0xdcf43007d1efb6e8U,
  0x1edef8e10014252eU, 0xfd0f24d0fdfa2207U, 0x3de49ae305f9fcf1U, 0xd40bf9fbfa00d5ffU,
  0x25de07e9d4051c28U, 0xf403fafcfe3501eeU, 0x825d8343be5e7e1U, 0xe40f051ecb25c626U,
  0x4b45e2cb3c0bc01eU, 0xeb14cb3f47ec892fU, 0x4b50161827eafbcdU, 0x9ddced5e2fd0cdaU,
  0x2cf2f4ff150bf1ffU, 0xe3fdfc01e206e02aU, 0x1332042c55c509f5U, 0xf7e305ef1536010eU,
  0x2d4f04f81c20c8fdU, 0xf11ec733fb0abf21U, 0x1cfbe9ee271b22fdU, 0xe5bb10fcec4098e2U,
  0x152b0a7c08d6016bU, 0xe6f8262fef009f29U, 0xee9bfe352028ecfbU, 0xe7100425ef138113U,
  0x360b0225fa003950U, 0xff0cdc2600ffd441U, 0xe4d1f82a4afaeafaU, 0x14c51b000425b4e3U,
  0x3b013d3d2f01bd5cU, 0xd30a2b30f4e3f532U, 0x11e1732fe1fce111U, 0x3bcadfe2f6f603e3U,
  0xbca400100ed4b4efU, 0xe102183832ecc334U, 0x6ec4d32f80c1af7U, 0xff5f404ee10e8ccU,
  0xad9431e628c212e1U, 0xc9dc0311c9eac85bU, 0x5f77530e418e33dU, 0x38f596f1f7dfc6aeU,
  0x959c27e6fcaf06c8U, 0xcaf0152313b8f575U, 0xbdf5f7e83f2d43d4U, 0xdbbcc7ed2611bae2U,
  0xb9e214ced9e6a5e2U, 0xd4f8e00b0315e5f1U, 0x9a2c37ea67f6f7b5U, 0xe716ddc8eb48adeaU,
  0xce2b0ddce8eefc09U, 0x36d310f27633c11bU, 0xcf14319b1f213adaU, 0xb108dcddf073ca20U,
  0x9f4dbcd0208e0d5U, 0x361fecd70a04e4eaU, 0xa221170bf20cc893U, 0x1844fedb011aafe9U,
  0x2028d7b91d162bdcU, 0xcef8f8d056cd0322U, 0xc92822e4ec01ada5U, 0x63af0c13adbdfe8U,
  0x1eee81ae33d5e1b9U, 0xe6dde8d70eda172fU, 0xfd3001fde1f1c4f0U, 0x62d2d22291af136U,
  0xf4d3bfda09e200e6U, 0x191403fd662cc0ddU, 0x92e6f3ee120cd3ecU, 0xd0f7edb8e516fa10U,
  0xe4c1c0dde8e2df0cU, 0x1d15e5d9320b01e5U, 0xecef0aedf72cc5f5U, 0xd1ece5cb0569c6d2U,
  0x49e710fedee20dfeU, 0xd0d01d061d26d53fU, 0xe5e104f8ff4f0cdeU, 0xc402daf62032132cU,
  0x2b02fb06d5fbdc48U, 0xd7e10105ef13f02dU, 0xb73146fa1c3f1208U, 0xea1acbfb1c2bfc10U,
  0xf6defac2f7f1dfccU, 0xf4f328ecf008361eU, 0xcc032607f80e3e25U, 0xed07e6f73809dce5U,
  0x803fdd7d9ecfdf0U, 0x1d50ad72423393cU, 0xe6f966f50547f1fbU, 0xdf2e10ec151a19e8U,
  0xcde633c007e0dcf2U, 0x48f234db14191ff7U, 0xc81413e6b601daf8U, 0x2d6014ed2703f6ebU,
  0x3ffdda8d817fcc9U, 0x39ef28cd08e708ffU, 0xe1071afab5d8bfbcU, 0xe4ad109fff5eef8U,
  0xe1a04a90bc3b8e9U, 0x170420bf050f5019U, 0xea164f16c9f70926U, 0x152ffedef328fdf5U,
  0x3fd6deb1d9d2be02U, 0x491917a42f12fb07U, 0xe615fbfc0721fed5U, 0xea36e3151cf3e3f5U,
  0xf00d050803f1b0U, 0x3d24bbbe1ae3e5f3U, 0xfee7e80531e9f9e6U, 0x3cf908db36d3dee9U,
  0xffb0adaf2c526a2U, 0x500b03b501d0ed24U, 0xeae40cd8441214e5U, 0x3101ecdc04e7c6f1U,
  0x1fdcfbd4e0eb08a6U, 0x4112fe8126e2dcfcU, 0x2fd1d4f503ed0e29U, 0xfef26261805dcb1U,
  0x39120819fcfee310U, 0xdaf8fadfe92a2ffcU, 0xfddcf6f1ec0018caU, 0xfa0d0b151f0f23a3U,
  0xfbf4040620f4b500U, 0xe31e06cfc33929efU, 0xb4e2f6d3240221d8U, 0x27fd2deb073abecaU,
  0x2af9f125f3070521U, 0xfad03cbc018f8deU, 0xd8d4170cefe23704U, 0x96f0d5fa0df206beU,
  0x2d07fe1c2a32f73aU, 0x5f2210cf30c080eU, 0xe8fe27f106023eafU, 0xbde7edf4fe035ba3U,
  0x1f1013e46e20d31U, 0xf227fd01eb37f6eeU, 0x9da52ed438dd3203U, 0xb215fbc9f302b8dcU,
  0x3b011b2c0eeefb28U, 0xfb07232007eb18edU, 0xe4fffddfd5d33501U, 0xe4f9fa1feac1b894U,
  0xced5060c0c2c120cU, 0xe65a1921ee2714fcU, 0xe8d143d7c0ec6781U, 0xfaf114d709da04a4U,
  0xbfa7f21616fadf39U, 0xfe3b160fe0faecffU, 0xc4e51ed910c05ed0U, 0xf2e8fbe2d3cfa2c4U,
  0xfe93c201ea16131cU, 0x2b13efecbbf72302U, 0x99fdd3cdd32024ecU, 0x1b07fc08f920c4abU,
  0x27f81eeded11f5fcU, 0x1f6e6f3e0182ae5U, 0x18e20bf5c0ec00e4U, 0xd0dd110c0a40f0ceU,
  0xbe80dff1541e53dU, 0x16020bcee617f8eeU, 0xf11c2dd7e73b4124U, 0xc9d3bb171d3bd99eU,
  0x21e0fa1be42a0109U, 0xb11e6e3ee17f207U, 0xffdfc8adeffef808U, 0xf0fd26eaf2b7e3e0U,
  0x28f8001607490df4U, 0xfee1fc16d0effbf5U, 0xf5c8f9c805dc351aU, 0xd40d1dfe1dbfdbc0U,
  0xe1ce97ddeb00150fU, 0x120b2611f7192111U, 0xeff8f4a4ebc71e36U, 0xf31a1c05fbd4b0a1U,
  0xee062ffbde2bf804U, 0xf3e73306f8291bd3U, 0xc3f515e30b091b33U, 0xaf06fd46fb0005e3U,
  0xd1f6d6caf41ef947U, 0x1219ede9ca4d1901U, 0xe52c07021f01f530U, 0x8110e3360e330302U,
  0xf9e7c3f2223cdf4eU, 0xb40ebf8c938e920U, 0x1bf6ce07112a2605U, 0xecf2fef60df3fef1U,
  0x17e207cf2807fc17U, 0x81fe8f2043ef6fdU, 0x25f212cfd3730a1eU, 0xf520e42e0a18fae5U,
  0xe00f2efb2af32aa4U, 0xeacf34ee0bebed0fU, 0x36c4fee0ed4e0e27U, 0xf22cf921442e06ffU,
  0xf7d73ef1f6d261b9U, 0xfbd7f2f08f437e9U, 0x5da1fff166bef58U, 0x2232627193df4c3U,
  0xcde45a1b01f33fcbU, 0x48bd6cfb1ff635feU, 0xd124d7cce2090536U, 0xe714de031910040eU,
  0xd2cdf319e1f60dd2U, 0xfe2de5f0e80d0517U, 0xf700f2ddec24fa46U, 0x17fae027e3061cd8U,
  0xe94ff3e35f37cbU, 0x20012a3bc5020501U, 0xfd25fff1fe05f80eU, 0xf6090b0700d6fc17U,
  0xd6d13404cf4e2ca4U, 0x201028cbe82e16e6U, 0xf4eefb0efa21ea45U, 0x1ffb251002dbeaacU,
  0xdbd414fed40a0800U, 0xfde0bf8dcfa01e6U, 0x6f6e8fff727d938U, 0x15e331f81793d9dcU,
  0x30f3fe2fd1333f0bU, 0x22e72d22d5122cedU, 0x1105df00fe14e626U, 0xccfb17c5dea9fdc8U,
  0x12042d45ad3325eeU, 0x16a030ced93223e4U, 0xa2eefcfb25212af0U, 0xff4dbf8f4e8f2ecU,
  0xeaee2c16360addb3U, 0xced3f8d929d90a16U, 0xbaeb01072dc93742U, 0xecde0a400afddff3U,
  0x363032f456e117f2U, 0xc204ce0f1ef81d04U, 0xa3ddfe190def2cfeU, 0xf31dfe433b1bfe07U,
  0xe0f253926d6ffd3U, 0xe9eee6ed130c0719U, 0xbff10e1fcf48e105U, 0x1ef1a23b323c0cf9U,
  0xf8cf1941e8f711eaU, 0xe432fcb717affe11U, 0x3da0a43d9361254U, 0x2f0ed351003cdaf6U,
  0x1cfe6e2803c044fcU, 0xc30cdaf302aa0d23U, 0xc4cefa04c0410e30U, 0x1e15b34a0848f5f7U,
  0x5cf9633a09cee606U, 0xf7d9efe3ecd33a47U, 0xa2ffd4e2bb57e01dU, 0x30290c0ceb0803e9U,
  0xbff433900d1ded0U, 0xc9c7d80517b70a14U, 0x9bf7fc34d727ee70U, 0x3cf8f00c1340dafeU,
  0x38295c331aef25f5U, 0x920bc5e039cd2a32U, 0xaffbdd12fa42cd41U, 0x1f1ef5e3440adafeU,
  0x42103854e3c5eac7U, 0xbd81e4dd2e051f27U, 0x3d12fa0de9c40ffdU, 0x1723c52b2752ad2eU,
  0xcb5d12fd16c5f1f6U, 0xb2ccf75a16addd04U, 0x62f3fe431712eed6U, 0x6014f900113dd112U,
  0x1e6213c20e1ac2f5U, 0xda000215e6dff1deU, 0x2525e64ee5e8f2c4U, 0x302ad00c0e22d11cU,
  0x1c3ef5fd1c0af2d7U, 0xc6be0b47dbcfce11U, 0xdd00dcde1a6d407U, 0x32553af11505eeeeU,
  0xfe213fdef50703cbU, 0x1fd23232381120caU, 0x31afffe012bbef10U, 0x3d402b06fe0002e6U,
  0xd50507be031dd9aaU, 0x2da56f22c1f23a2U, 0x10b3d5f710df0810U, 0x2626401ccbc627f8U,
  0xf2e36a6ebb7d98bU, 0x1d8661de5708feb5U, 0xe3e52724411a3a4bU, 0x10d5df471a403a35U,
  0x2628d929ee4dcaU, 0x26cfe6482d219202U, 0x22f6562f3e0a0d57U, 0x2ce3efe9ef16467fU,
  0xd41260413fc11f8U, 0x15e6c511f724c2ffU, 0xfbbe442f1f42383fU, 0x1219f0f7c6f8506bU,
  0xfc70eef10ac712eeU, 0x3bdb3408152010fdU, 0x2923812e35d9d6d2U, 0xc4f7ec0b4d28392cU,
  0x222de7e94012dd39U, 0x31de052f83d2b3f5U, 0xb45bb18433c05c5U, 0xd4db2b02381717ffU,
  0x1446feeb3841e919U, 0x31a1e936a8e0e1f6U, 0x1e08ab2d162ad4e7U, 0xa4e2322ce1041d0cU,
  0x391aefdf3138eaf8U, 0xec2f84dc8d7e0f2U, 0x54ed3312f6252706U, 0x1202e6e011fc235bU,
  0x2814f0ee0a431f03U, 0x18203145efe9bafdU, 0x32ed2f04fa230df8U, 0x6f1fd053fcf1345U,
  0x11033aed3c53f4fcU, 0x36e8416c35d30aedU, 0x400024f10d41dcdfU, 0xeff2062ae809493aU,
  0x170f50ef402e110aU, 0x1b152e0eb40bf5U, 0xf31213ecfd1cecfcU, 0xb7e7ffdff334d736U,
  0xf8d727e5f01bef06U, 0x262fbb4a0b29a8f5U, 0xf328f01f14201223U, 0xfd073fddfe21d111U,
  0xded713e92e2200e1U, 0xf81edf07f11bc9dcU, 0xff152012d630d439U, 0xcbe120df0823f246U,
  0xdffe0fef1415fec7U, 0x3ece91a0a0787f9U, 0xe0db0dffe0f92beeU, 0xe332008f11bde04U,
  0x927e8e9f2f4cdfeU, 0x98fbdfdc1efd50ffU, 0xe4ce1b0bd5cb1921U, 0xe8e11e19fa47feffU,
  0x311c2ce916e3f5ceU, 0xb10905d31314fd46U, 0xbbdf201bfc0d47cfU, 0xe90bf533cc17f221U,
  0x1e28111617fbcb13U, 0xc007d9dbf50ef4feU, 0x40d0617891f0610U, 0x2433033eef4a05ebU,
  0x18fe0ff625fa10ebU, 0xe0fc1ce1e4dcf6f8U, 0x250e404cbbd1401dU, 0x1400e6fdf734f50eU,
  0x4a1a400fe1bb17e2U, 0xd00c11a018b9ed1eU, 0xd0f4fd39b9f72bf8U, 0x13f9eb3a00370319U,
  0x2e112b1c1ac1d4bdU, 0x823dda71513ee27U, 0x15ffdc05d9003d2dU, 0x5f0ae124e51f022aU,
  0x44f2dd081fc2dcd6U, 0xfac219af1bc41e1aU, 0xdfc50e2d18f02d22U, 0x5d1ece3626003e45U,
  0x5af500d40c87f4c4U, 0x1af0eeb3cd92f4bU, 0xdddfe00d04161bf9U, 0x39f102eedf22f205U,
  0x4510240feae0ddf8U, 0x10d5c4813823f567U, 0xb3fb77f0dc63d7e4U, 0xd2edc2f01fd83406U,
  0x152303e2efd2e0ebU, 0x38c7432ef90ad138U, 0x80dd9060e2ed6U, 0x1517c0f7d307d0cbU,
  0x3fdf91e08c22709U, 0x2f0222205f91c4cU, 0xc02e7208dd69e3adU, 0x1dd6ad5bd3e70dd6U,
  0x1a0cd41428abe819U, 0x34d31ee8381f1532U, 0xf1000e1c033a66cdU, 0xf03e304d3fdccfaU,
  0xf929d525cfe2e4f5U, 0xed0eb9ebec33b1f2U, 0x14f80c193a1e42bdU, 0x2b1ddbe6101ddcddU,
  0xcd3aa3f3dc0fcbd8U, 0x3901e5bb334e3908U, 0x8270809311d29caU, 0xf1c703f9d80db5eeU,
  0xd330f8091113f30cU, 0xed6e9fd322d1939U, 0x37b72b183d1a4aeeU, 0x43ab000f9d8c7c3U,
  0xcd06b5ebb203ad49U, 0xe5fefdd2194300e4U, 0x24dd04f83cde4aebU, 0x2457a7edf6b000d5U,
  0xd6228129bffed121U, 0x15142ba44d441101U, 0x17b937f6672855b5U, 0x4801e43442139b02U,
  0xf6e795a8fa96a226U, 0x1ee1eaa32d41e81aU, 0xc7dfe16f29f7c5d7U, 0x9fcfccd11c602f1U,
  0xe225c3fe13cf000fU, 0xd60809f63117e13fU, 0xd8e01d39e0d9a9cbU, 0x21f3e0dbdffc34c1U,
  0xeaf34ffad800f5e4U, 0xc2cfd1ea1be41e24U, 0xe848f33518be0df7U, 0xf4ddedbf020604c0U,
  0x390ceea8d7b1d717U, 0xf7123afcce2b19f8U, 0xefecfacd20fac414U, 0xae23e4840331a040U,
  0x11d1cd00fcb2e743U, 0xc010fc5c2cedd714U, 0xd61c12c30b0bb7f2U, 0xbdfb2ed203eeb007U,
  0x21061a2cabbff13cU, 0xb31d16112ae8f342U, 0xb40d6e60c15ba45U, 0x83f12112157f0230U,
  0x1302cdf92bcf0219U, 0xe6f3061ff8eddf15U, 0xdd08474c7b32cb43U, 0xebfacaabffdab51cU,
  0xb8d2a8b5e9e01dc2U, 0x9a19f1d77c09c34eU, 0xeed4d7d96c4cb433U, 0xfb0cf9c01014ebdfU,
  0xdcbe5bf0f2e50cf3U, 0xc4fe23f052fbf34aU, 0xfe2aeaea6f0e9c40U, 0xa5b6e2e02f06111aU,
  0x1ed60ccfaf2208b7U, 0xa411f9bd134ed431U, 0xf80ae9dff9d92040U, 0x4ddc152dfb0a0404U,
  0x1d120ec2e25fedeU, 0xd50405f8fddbe10aU, 0xadfecfcd2e42036U, 0x55fe3c4702fbe6e9U,
  0x23e060e8252ce8d3U, 0xe8fbf90718ddefcdU, 0x100906e0f2e3190eU, 0x64061d30ebff2ec5U,
  0x16c616011df005d7U, 0x508ffec00f2dc00U, 0x25fbbfefe5eae12fU, 0xe2fa210218100b16U,
  0xfe0bfd2b0afe1d13U, 0xeddac624e30f06f7U, 0x1ae7d00a1de60027U, 0xf4012400de241107U,
  0x2b370758ea0a0e22U, 0x2701e024cfc6efefU, 0x28fddafd0005d531U, 0xe51b0ef7f7ec021eU,
  0x1c1b073a190d05f7U, 0xfd0fd04f9d6f7f3U, 0xd2d507e60cfb0649U, 0xf9f63c34e231f73cU,
  0x3100155241a30f9U, 0xef00de26d6f10e12U, 0xef308f3f5f3291aU, 0x6cb7f54ebfee837U,
  0x808045afc28f416U, 0xfaeee60cc9f9e213U, 0xf4f40d180d06e50eU, 0xdd01572afdfc141eU,
  0xffe7132f3804f4e1U, 0xf3f115ecece30004U, 0xdf3d1a0f02f30bebU, 0x2f9e400e6a301abU,
  0x1813d4ea26bdca2dU, 0xcec9f43330d3fb27U, 0x2b0035157a03e6e8U, 0x13f8ea09c4e601e7U,
  0x26081513fb0bdafaU, 0xe7eefa301f110322U, 0x2f02dff37fc03f9U, 0xf702dfd7efb504d9U,
  0xb36ef0f18c4e309U, 0xf9faf13511001324U, 0x9dfe820fd0111faU, 0x41ebcf06042ae10cU,
  0xce151600e8bddb2bU, 0xe3cd8cc14fede39U, 0x5e814e5793218e1U, 0x1709f0fac4fad7eeU,
  0xda3e00f4df15fd30U, 0x2df9f5080f36d91aU, 0x20d10f73731022aU, 0x1bf90613090fd6f6U,
  0xe11b2ffae9da0822U, 0xd80fcce52a0af629U, 0xdcf8252a0b14c21dU, 0x2404a6c7f1d9f2ceU,
  0xb1fefae5e0c2cdf5U, 0xe1f2fd1a4bdbe819U, 0x14ee7ff87141bbe8U, 0x100bc8e2f3e4fbf0U,
  0xcedb0fe5ddec011dU, 0xc8d8342941ddee49U, 0xf3ee19234c60e410U, 0xd217d3f4e91403feU,
  0xf1ce19f20ac6c52cU, 0xfdc03e391ae90b39U, 0xdc0fd5c5e81b051cU, 0xc3d4f205e815fdd9U,
  0x12ffe11be21b2900U, 0x1c0c0bd0f10ffee2U, 0xe2fae3dcca07eb1fU, 0xb7dfd9f10520fbe6U,
  0x23e5e113e71d010fU, 0xd9fded03da26e9f0U, 0x407f9c510260e31U, 0xd2d5ffcfe73bedbfU,
  0xea091ce1e8fa1dffU, 0xee11f2e108030fc0U, 0xe40ee7cdffd3efeaU, 0x3161a03ecebd0d2U,
  0xf507ee010d3124d7U, 0x20b3e70505260f33U, 0xf70727f0170809d7U, 0xf3262ef9eb0dd0d1U,
  0x8cd04f3e10c04e0U, 0xffd9eaeff62d051cU, 0xdcdff4bb12f7f6f6U, 0xf5030cc0c4e5010dU,
  0x170deae00e1613e8U, 0x10ce1dfb2fde2aecU, 0xdc01bfeef503ed48U, 0x9a16ed2027e819c4U,
  0x4f81e13232b1448U, 0xb10efebe64af2ffU, 0xf61ad836f10e0725U, 0x9723eb1e16f523d9U,
  0x1ae10ecc0215ff07U, 0xe82503f2025ce503U, 0xdffcdce4f7ffe627U, 0x81ff0902f115fcdaU,
  0xdbd7ddec200e340cU, 0x40814f4fd301cfdU, 0x22ef25fc00fde2f7U, 0xf0bed2c0ef82b24U,
  0xf52209e1fbf60bd5U, 0x2108ee20fbfecde7U, 0xbd11323e802e9f1U, 0x32fcf9fcf3d30328U,
  0xf310db2523fae7fbU, 0x113d6f8dbe3fae0U, 0x1f4321ff4d9e2ceU, 0x3b16daff0ee30422U,
  0xf11ebeff0bf100e4U, 0x1b24fa0feadbd3fbU, 0x26cb17e912091e07U, 0x12fb1e16e3f31422U,
  0xa5e0be322080fe4U, 0xef0a120ffbdde8d5U, 0xf5cdf317030d5503U, 0x131efa0621fa1e19U,
  0x4600032f1da0c19U, 0x3f71018d90b08d2U, 0xe0df270aec0551f8U, 0x90a0ef918190fU,
  0x47fe2fb23e4f0fdU, 0xcfcecf6e108f3fbU, 0x21044017223ee40bU, 0xec14d42fe7040c60U,
  0xe035e1f10d080af3U, 0x9fbfdf3e3e7e909U, 0x171f41180c1d07e5U, 0x17ffebf10f060e56U,
  0xf94bfce502fdf6fbU, 0xef208dcf4f000f8U, 0xfe943482a0aeed1U, 0x1917da061c0ce841U,
  0xf16cd1dcee07fcebU, 0x1ed808f6f102e012U, 0xf908e116fe11fbedU, 0xde0e110145fa19fdU,
  0x11cd0426250629c2U, 0xdc350a1c0819050cU, 0xfb12e00f19450700U, 0xc0630223d04151fU,
  0xececf81716122ebdU, 0xe012042ee31902dcU, 0x1de1e0150d1aeb10U, 0xf7fa330b0ce8e928U,
  0x8e6f801031836ebU, 0xe9281117f11e01e8U, 0x1b0114eeea125c01U, 0x1be17ffb02c9fe1dU,
  0x201404e2134010d8U, 0xcd22ff211de0e0f6U, 0x4cf3e5d2fa2025f9U, 0x1ad3622e0be30804U,
  0x2824310a08340704U, 0xe9160b1b17bcdde3U, 0x3af3f2d0e60c4615U, 0x1cef66131ad4f307U,
  0x24fb1c01ee3010f8U, 0xe70a13312fdbebfbU, 0xf623e1eef7f1eaf7U, 0xc3fa13fc32ef07ecU,
  0x1dd705072bff3c0cU, 0x8c20c0eea0b1108U, 0xf4f4d9e8cd3dcafcU, 0xe80a25ffebe61500U,
  0x2c08261e34cf2c14U, 0x17f7041109063d09U, 0xce14c6cbf602d627U, 0xe70b10f6f4072618U,
  0x2df53130fbd435ffU, 0xfdf6f223eb004819U, 0xe61bbb2805dee817U, 0x1209f5b7f9f90b22U,
  0xcaa6feaefa110394U, 0xbc23e1c127fce8ecU, 0xd52d0d16edd9fe3cU, 0xa12f11c20e1243dU,
  0xef24c52301f29cU, 0xc640c9e929fee716U, 0xe90d17f1f5cefc43U, 0x2ae5280ded081746U,
  0x21f60be81aeb36e8U, 0xe846e9e32403c4d2U, 0xfe52fc22d7fdb007U, 0xa93ee8fb322fd60fU,
  0xf90bac14fc06e9ddU, 0xa326fbedf8cfeb08U, 0xfb24f649d6f1fc2aU, 0xd922f20260ede92dU,
  0xdbfd151416d7cbcbU, 0xaaf8fe21fe001f37U, 0xcf3400ccd5ceb722U, 0xbfe2fc0c5d21f269U,
  0xf2580f4be4e61acfU, 0x81ebed13e9d524f8U, 0x3912d31519d9e527U, 0x1d4d32bf0c21da24U,
  0x890d7db0ae4f6baU, 0xd201ecab18f62fe7U, 0xeaf9e12dd2e5dc44U, 0x363608113b260438U,
  0x2db725fcdb19ecf5U, 0xf4110bab2ac61c57U, 0xd72ca60226d61878U, 0x1efefac80607b64bU,
  0xdb071815ca251af9U, 0xd823f2f01d260106U, 0x2d600001a1aU, 0xfffff26400004ab8U,
  0xfffff1d700001fd8U, 0xffffdbcfffffc8c7U, 0xffff7c04ffffde39U, 0xfffff47c00002128U,
  0xffffe0c9ffffd7acU, 0x314000000afaU, 0xffffe1780000176dU, 0xffffead1ffffdaf4U,
  0x16f3ffffb856U, 0x157e00000236U, 0xffffbcfa000033daU, 0x2c13ffffb87fU,
  0xffffd80f00004ad4U, 0xfffff4d7ffffdb7fU, 0xffffb3feffffb54dU, 0xffffd0c4ffffeb63U,
  0x4a17ffff837cU, 0xffffcaa500003ad9U, 0x4c7000000cf3U, 0xf70fffff3beU,
  0x713900000178U, 0x48aeffffdc1dU, 0x3a7600001c90U, 0xffffcc48000031f8U,
  0xffffab3dffffe656U, 0xffffdf29ffffb267U, 0x2993ffffea56U, 0xffffe0d9ffffde37U,
  0xffffcb8000003a0fU, 0xf1cffffbc9dU, 0xbc14d2111407f61aU, 0xd021e1ef9f4fe12U,
  0x180ff0bcf81b1aefU, 0xd41c1e0f1c11c81cU, 0xbfeeeb161af7090eU, 0xfe7101809c2e9e4U,
  0xcc1adef0f00f06e2U, 0xf51cef11d7f8d2ddU, 0x120dd6f70b08170dU, 0x119e8e2000a1100U,
  0xf5e0011e07e1e002U, 0x1004f80814d90c18U, 0xf106efc000f2c016U, 0xfa26ffee18f9f20bU,
  0xe20efde1cc1404dfU, 0xbee0f1103080ff3U, 0xece31e19c219df0bU, 0xc9d409fbaef513e9U,
  0xf1079206dded00b1U, 0x170a1ae7c60e0da3U, 0x1610201e1b11120aU, 0xf30df1218108160dU,
  0x130f1b1f11e086e0U, 0x231ad4f5170409c0U, 0x1cb1f80bc61eea0aU, 0xd512f4fbb7e1f12aU,
  0x23e2d01bc929f203U, 0x1f18151fd31410e0U, 0x18eb1aff1eb3edebU, 0x131e011ee2ff17f7U,
  0x20effc1adbf1d802U, 0x90807fb10900b0aU, 0xe60b0b0615d7001eU, 0xa19fa1103d80cb9U,
  0xc61e0203eec10500U, 0x140c0fef001c1518U, 0x1cd2e319f40c0d0cU, 0xb914cfe111e6f6e6U,
  0xe51010000bfe04c7U, 0xe5140de612feda12U, 0xb080b0f19f2d402U, 0xf3d906ef16fa1402U,
  0xe00bfb08130906faU, 0xdffa0de0d91ffa04U, 0xf5e6f620160811f3U, 0xf1f6db1def0acf07U,
  0x19161a1b06f6d7f5U, 0x1d12120bdd02ddf0U, 0x17ec0be2e31b0d10U, 0xf20dacecd319c100U,
  0x19f2d2ee070ad70dU, 0x14a8c5181efc0c1dU, 0xefd15d1bfd3f3bdU, 0xe2019f41c150d0cU,
  0x13a8d4ff061a110cU, 0xe5b8ad2405dffb0aU, 0x81b09cb0dc4f028U, 0x13f50bd90ed01ef6U,
  0xd125051bf3d515c7U, 0x80cf6cdd6dbd61dU, 0x25badb16fdfef917U, 0xe30abada1513d7e4U,
  0x1cff22edfad3db09U, 0x40e16c40f0cd01dU, 0xe5fe320f1a2415ccU, 0x902ec241619d9edU,
  0x9c402d60bffd402U, 0xebe3d71705fcf41aU, 0x2110b07d903db00U, 0xcd605fc0fe60506U,
  0xdcd7e8dc0d14fe14U, 0xede7f21bf2ef0210U, 0x10140ee211fddcf7U, 0xebe9e7fd141719d6U,
  0xe6e0f7160700e2e7U, 0xf0f1f4e4fe0707ecU, 0xdfd523ff0b1609U, 0xc300f713f908f60bU,
  0x1300161e1aebfae5U, 0x1b160ff7d60dfcd3U, 0x17200000094U, 0xffffff7d0000001bU,
  0xfffffd61ffffff6eU, 0xfffffe080000024aU, 0xfffff9610000026aU,
};


ai_handle g_audio_model_weights_table[1 + 2] = {
  AI_HANDLE_PTR(AI_MAGIC_MARKER),
  AI_HANDLE_PTR(s_audio_model_weights_array_u64),
  AI_HANDLE_PTR(AI_MAGIC_MARKER),
};

